<unk>	0
<s>	0
</s>	0
.	-3.13822
s	-3.40393
▁	-3.46898
▁de	-3.48682
:	-3.76677
,	-3.87389
o	-4.49058
▁en	-4.55622
▁a	-4.62275
a	-4.63012
@	-4.7125
▁tu	-4.77962
com	-4.78591
▁la	-4.83685
r	-4.8903
▁y	-4.91817
-	-4.97981
▁Para	-5.036
▁el	-5.03993
e	-5.10775
▁para	-5.10798
▁que	-5.14756
▁con	-5.25572
!	-5.31539
>	-5.36012
es	-5.36968
▁<	-5.37422
▁¡	-5.37515
▁De	-5.41248
n	-5.47014
/	-5.49934
▁Asunto	-5.57447
▁Fecha	-5.57694
te	-5.59667
▁por	-5.60861
▁2025	-5.60961
▁al	-5.61805
▁A	-5.66701
▁ha	-5.71241
▁o	-5.75222
t	-5.77188
▁un	-5.78572
i	-5.83617
y	-5.84046
▁su	-5.84579
▁C	-5.84846
0	-5.87864
▁No	-5.88423
ar	-5.88776
)	-5.92685
▁este	-5.93996
▁http	-5.94097
://	-5.94111
▁del	-5.99037
do	-5.99059
▁(	-5.99258
▁Tu	-5.99856
á	-6.00226
▁los	-6.00477
▁nuestro	-6.00521
mos	-6.00622
u	-6.02017
ción	-6.03675
l	-6.03721
▁no	-6.06149
▁se	-6.06508
▁más	-6.07189
d	-6.08026
▁una	-6.08329
5	-6.11004
c	-6.12329
▁información	-6.16772
▁T	-6.18349
p	-6.19155
▁está	-6.22484
▁Saludos	-6.23674
1	-6.23805
g	-6.2402
▁nuestra	-6.2487
▁-	-6.26871
▁esta	-6.27197
sido	-6.27247
͏	-6.29321
A	-6.29797
6	-6.32661
▁correo	-6.33523
m	-6.35473
▁te	-6.36113
▁cuenta	-6.36389
w	-6.36621
emos	-6.36681
▁es	-6.42289
▁horas	-6.4372
▁comunica	-6.46078
▁P	-6.46161
▁junio	-6.51288
9	-6.51517
er	-6.51906
b	-6.52511
la	-6.52742
ta	-6.53547
▁M	-6.55756
▁Si	-6.56202
▁S	-6.57645
nos	-6.59293
da	-6.5966
day	-6.60583
4	-6.61099
ww	-6.61692
▁lo	-6.62084
3	-6.62488
▁May	-6.62676
2	-6.62747
▁+34	-6.63388
ra	-6.67253
mail	-6.67771
ro	-6.67909
ma	-6.68598
v	-6.6864
C	-6.68682
7	-6.70353
▁sin	-6.70953
▁El	-6.71967
h	-6.72312
net	-6.72869
▁5	-6.74412
z	-6.74725
8	-6.74736
al	-6.75148
▁Te	-6.76668
▁antes	-6.77997
ndo	-6.78198
E	-6.79625
▁E	-6.79935
f	-6.81803
é	-6.82317
aho	-6.83413
▁Estimado	-6.83461
S	-6.83994
?	-6.84182
gmail	-6.84411
en	-6.84417
í	-6.85092
▁datos	-6.86079
re	-6.86379
▁sitio	-6.86395
▁H	-6.87563
q	-6.87686
hot	-6.87749
na	-6.87978
ambién	-6.88201
tamente	-6.88847
▁días	-6.89087
▁po	-6.89318
▁siguiente	-6.89577
to	-6.8984
lo	-6.91453
▁h	-6.91973
x	-6.92618
▁Aten	-6.93167
T	-6.93228
▁Se	-6.93724
ca	-6.93785
▁clic	-6.94799
D	-6.9499
sta	-6.95093
P	-6.95497
O	-6.95514
in	-6.95584
▁Le	-6.95843
_	-6.96757
–	-6.97254
▁Hola	-6.97256
▁ahora	-6.97259
j	-6.98031
▁¿	-6.98257
▁Su	-6.98264
▁La	-6.99819
▁mensaje	-7.01652
co	-7.01863
dés	-7.02474
ti	-7.04578
ón	-7.04669
▁jueves	-7.0503
as	-7.05387
▁48	-7.05716
an	-7.06265
desde	-7.07265
os	-7.08662
R	-7.08682
▁in	-7.08685
▁pierdas	-7.08877
▁G	-7.09215
B	-7.09812
I	-7.11459
▁equipo	-7.12333
]	-7.12877
▁mismo	-7.12884
▁hoy	-7.15841
org	-7.16144
k	-7.16314
▁1	-7.16529
▁B	-7.16597
ado	-7.16628
▁solicitud	-7.17655
▁R	-7.1931
ó	-7.19746
▁3	-7.19928
on	-7.19982
cción	-7.20706
de	-7.21604
U	-7.23516
M	-7.23668
rse	-7.23712
▁En	-7.24508
or	-7.24662
ce	-7.24985
▁como	-7.25026
▁inmediata	-7.25323
remos	-7.25944
▁Sol	-7.25975
▁puede	-7.26027
rá	-7.28534
▁cor	-7.29453
mente	-7.29888
ga	-7.29919
▁web	-7.30008
▁usuario	-7.30106
no	-7.30257
▁próximo	-7.30702
▁6	-7.31102
▁oportunidad	-7.31457
▁contacto	-7.3159
▁confirma	-7.32781
▁favor	-7.33528
▁aquí	-7.33529
▁24	-7.33558
▁seguridad	-7.33907
▁será	-7.34058
▁pago	-7.35093
▁le	-7.3569
▁l	-7.36109
▁escrib	-7.36113
le	-7.37144
▁recibido	-7.37181
▁requerida	-7.37199
ci	-7.37226
▁and	-7.37295
X	-7.38325
▁re	-7.38343
diales	-7.38672
L	-7.39272
▁4	-7.39717
▁c	-7.41688
▁ingres	-7.42403
V	-7.42457
▁gratis	-7.42524
▁acceso	-7.42611
mo	-7.43568
▁Por	-7.43745
ia	-7.43762
▁Jun	-7.44154
▁situación	-7.44905
▁enlace	-7.45206
▁Nuestro	-7.46525
▁exitosamente	-7.46528
▁p	-7.4664
mi	-7.4685
▁F	-7.47268
▁accedé	-7.47471
▁cliente	-7.47912
▁10	-7.48367
▁evalua	-7.49004
▁N	-7.49052
▁7	-7.49562
▁dude	-7.49845
▁respondas	-7.49862
N	-7.50111
No	-7.50661
▁trámite	-7.51546
▁Este	-7.5178
▁necesita	-7.51802
G	-7.52846
▁completado	-7.5345
F	-7.53758
▁resolver	-7.54155
▁notificación	-7.55127
▁consecuencias	-7.55933
▁correctamente	-7.55933
▁solo	-7.5598
▁V	-7.56054
▁premio	-7.56356
am	-7.56808
▁adicionales	-7.56886
▁escribir	-7.56889
▁e	-7.57762
▁informarle	-7.57767
va	-7.57974
▁evitar	-7.58681
▁Gracias	-7.58908
▁próxima	-7.59586
me	-7.59688
▁O	-7.5993
▁pasos	-7.60085
▁llamar	-7.60556
▁consultas	-7.60572
▁Re	-7.60621
XXX	-7.61464
▁9	-7.6167
▁consultar	-7.61689
▁DE	-7.61741
tc	-7.61772
ba	-7.61818
▁brevedad	-7.62417
▁dinero	-7.62674
▁apli	-7.62818
▁Tené	-7.62993
pe	-7.6313
io	-7.63381
▁recibirá	-7.63384
pond	-7.63565
is	-7.63951
▁actua	-7.63975
▁L	-7.64011
rio	-7.64946
▁USD	-7.6533
▁visitar	-7.65523
▁nos	-7.65556
▁si	-7.65765
quen	-7.65889
▁sus	-7.65895
▁8	-7.65933
▁30	-7.66084
▁recibir	-7.66319
▁billetera	-7.6632
▁transferí	-7.66322
ll	-7.66844
di	-7.67141
▁ser	-7.67682
▁debe	-7.68867
▁viernes	-7.6935
iendo	-7.6951
edu	-7.7089
ina	-7.71536
▁proceso	-7.71553
▁tiene	-7.71733
que	-7.71962
▁Con	-7.73784
▁f	-7.73796
nes	-7.74349
res	-7.74581
,000	-7.7588
▁casa	-7.76061
▁2	-7.7659
▁fue	-7.76873
el	-7.77207
ir	-7.77328
▁dirección	-7.77912
▁contenido	-7.77922
"	-7.78227
▁lunes	-7.79095
▁12	-7.79486
▁Es	-7.79682
és	-7.80116
▁identidad	-7.80175
Haz	-7.80261
H	-7.80497
ía	-7.80865
▁tiempo	-7.81326
▁verificación	-7.81396
▁forma	-7.82971
▁15	-7.83371
▁Banco	-7.8366
▁D	-7.83831
idad	-7.84016
▁d	-7.84596
dos	-7.84879
▁cita	-7.84922
ver	-7.84972
W	-7.85155
seguridad	-7.85419
se	-7.8611
il	-7.86262
▁vida	-7.87304
▁Gana	-7.87393
ciones	-7.88163
Z	-7.88504
▁Soporte	-7.8851
▁Mon	-7.88538
▁tra	-7.88881
▁completa	-7.89026
ada	-7.89308
rte	-7.89395
▁20	-7.89502
▁seguro	-7.8971
Q	-7.89754
▁electrónico	-7.8976
▁tarjeta	-7.8976
▁sobre	-7.89767
Y	-7.90502
go	-7.90531
00	-7.9076
▁descuento	-7.91494
▁todo	-7.91666
▁mi	-7.91698
enlace	-7.91831
▁BBVA	-7.92307
▁Equipo	-7.92307
▁"	-7.93238
▁crédito	-7.93606
▁detectado	-7.93619
ita	-7.93756
fi	-7.94126
▁ya	-7.94554
▁actividad	-7.94579
án	-7.95594
correo	-7.9589
K	-7.96256
▁desconocido	-7.96263
cion	-7.96418
▁We	-7.96575
bo	-7.96656
▁2024	-7.96715
us	-7.97464
fake	-7.97607
▁sistema	-7.97607
▁31	-7.977
empresa	-7.97808
▁especial	-7.98455
ez	-7.99189
▁cualquier	-8.00392
0%	-8.02605
▁Departamento	-8.03238
▁v	-8.0366
▁w	-8.03718
email	-8.03899
▁27	-8.04343
estinatario	-8.04601
▁I	-8.06017
▁Seguridad	-8.06122
▁julio	-8.06122
▁Esta	-8.06379
000	-8.06685
ero	-8.07276
▁Al	-8.07366
▁m	-8.07398
▁personal	-8.07832
jo	-8.07916
ch	-8.07991
pa	-8.08112
▁i	-8.08746
▁suscripción	-8.0913
▁dispositivo	-8.09131
▁realiza	-8.09141
ida	-8.1035
▁Oferta	-8.10414
▁miércoles	-8.10668
▁pantalla	-8.10668
▁compra	-8.10799
ctores	-8.10873
▁hs	-8.10958
▁Has	-8.11298
▁abierta	-8.12231
banco	-8.12299
ú	-8.12318
Gana	-8.12447
tra	-8.12817
lu	-8.13312
20	-8.13502
▁envío	-8.13818
falso	-8.13929
▁productos	-8.13955
▁18	-8.14019
ria	-8.14296
▁urgente	-8.14403
▁Ir	-8.15285
los	-8.15409
▁Préstamo	-8.15431
▁martes	-8.15436
J	-8.15619
▁Co	-8.15688
▁b	-8.15891
▁todos	-8.16439
ano	-8.16868
ing	-8.17
▁disponible	-8.17016
▁inmediato	-8.1707
▁lista	-8.17111
ría	-8.17178
per	-8.17498
das	-8.17955
▁Vi	-8.18147
▁mes	-8.18472
onversación	-8.18737
▁nueva	-8.18737
▁teléfono	-8.18739
bi	-8.18832
▁01	-8.18866
▁Ma	-8.18935
it	-8.19971
ana	-8.20102
nday	-8.2029
▁mí	-8.20584
▁día	-8.20615
▁Confirmación	-8.20629
▁19	-8.20674
▁Us	-8.21103
▁ganar	-8.2113
▁14	-8.21152
99	-8.21369
▁ti	-8.2155
▁23	-8.22449
▁Pa	-8.23164
pi	-8.23274
▁$1	-8.23485
▁beneficios	-8.23729
za	-8.23746
▁nuevo	-8.23911
▁número	-8.23913
▁di	-8.24038
mar	-8.25338
▁mañana	-8.25696
▁11	-8.25801
▁trabajo	-8.26367
▁J	-8.27013
ve	-8.27369
▁17	-8.27381
▁experiencia	-8.27514
▁viaje	-8.27514
▁total	-8.27515
▁|	-8.27547
▁+	-8.27595
▁Th	-8.28518
▁desea	-8.288
▁esto	-8.2907
▁línea	-8.29366
red	-8.2968
▁fondos	-8.29787
cia	-8.30323
ur	-8.30731
▁documento	-8.30775
▁Friday	-8.31253
▁Recordatorio	-8.31253
▁solicitar	-8.31359
▁ca	-8.31725
▁cu	-8.31859
45	-8.31919
▁informa	-8.31992
qui	-8.32092
ber	-8.33109
▁02	-8.33517
▁25	-8.33608
jes	-8.33759
▁ni	-8.33879
ES	-8.34139
▁hac	-8.34153
▁72	-8.34527
▁futuro	-8.35137
las	-8.35548
▁meses	-8.35749
▁mensajes	-8.35882
▁fin	-8.36213
▁21	-8.36489
▁servicio	-8.36495
▁contactos	-8.36596
▁Satur	-8.37062
Felicidades	-8.37137
▁bloqueada	-8.37137
▁completo	-8.37246
sigue	-8.37385
▁03	-8.37421
▁Ver	-8.3751
▁seleccionado	-8.3755
▁X	-8.38088
▁me	-8.3835
vé	-8.38537
ya	-8.38654
vo	-8.389
▁qué	-8.39178
▁han	-8.3959
tu	-8.39833
urs	-8.40162
ás	-8.40537
▁Ro	-8.40797
OS	-8.41008
▁04	-8.41201
▁pod	-8.41204
▁domingo	-8.41261
▁limitado	-8.41261
▁paquete	-8.41261
▁usar	-8.41379
▁Confirma	-8.41423
▁13	-8.41959
▁gana	-8.41989
▁haz	-8.42024
eta	-8.42409
ejemplo	-8.42539
▁mejor	-8.42557
ed	-8.43241
▁Centr	-8.43269
AS	-8.4327
ble	-8.43292
▁increíble	-8.43389
▁reserva	-8.43389
▁factura	-8.43391
▁reuni	-8.43418
urante	-8.43469
▁promociones	-8.43901
▁personales	-8.4411
ando	-8.44867
tion	-8.45118
ura	-8.4521
▁Contacto	-8.45829
ja	-8.46959
▁Cas	-8.47066
▁pa	-8.47583
▁bancaria	-8.47785
▁contraseña	-8.47787
▁transferencia	-8.47795
▁Tel	-8.47804
▁auto	-8.47818
▁ver	-8.48251
con	-8.4828
▁t	-8.48289
10	-8.48371
ido	-8.48439
▁ofertas	-8.48455
▁email	-8.48467
▁podrá	-8.4867
▁activa	-8.48846
amos	-8.48947
lla	-8.49226
▁Digital	-8.50058
▁sospechosa	-8.50058
▁única	-8.50058
▁Verifica	-8.50079
▁Que	-8.51013
ric	-8.51579
cha	-8.51748
▁28	-8.51883
id	-8.52098
iste	-8.52179
▁sábado	-8.52383
salud	-8.52385
▁contra	-8.52996
ig	-8.53026
TE	-8.53344
be	-8.53454
Á	-8.53786
Por	-8.54511
bue	-8.54641
;	-8.54764
▁nosotros	-8.54764
▁momento	-8.54765
▁código	-8.54775
▁nombre	-8.54825
▁pedido	-8.54933
▁soporte	-8.54984
▁Y	-8.55547
ul	-8.55623
▁In	-8.55888
▁plan	-8.5594
ño	-8.55963
rea	-8.56614
▁Cuenta	-8.57203
▁Técnico	-8.57203
▁formulario	-8.57203
inisterio	-8.57203
▁listo	-8.57204
...	-8.57234
ómo	-8.57304
ifica	-8.57434
gov	-8.57464
un	-8.57491
▁ingresos	-8.57587
▁Ten	-8.57966
55	-8.58121
▁Última	-8.58899
▁servicios	-8.58904
alerta	-8.59158
ac	-8.59363
▁Global	-8.59703
▁secreto	-8.5981
▁garantizado	-8.59898
▁ayuda	-8.60427
ente	-8.60562
▁ganador	-8.60602
tar	-8.61291
um	-8.61447
▁préstamo	-8.61465
▁26	-8.61828
end	-8.61844
▁Martín	-8.62232
▁Di	-8.62233
ual	-8.62257
global	-8.62267
▁titular	-8.62267
▁sorteo	-8.62268
▁Tiene	-8.62273
▁parte	-8.62468
▁precio	-8.62558
▁oferta	-8.62609
▁real	-8.62624
▁asistencia	-8.62633
ante	-8.62662
▁0	-8.62701
▁aviso	-8.62844
▁22	-8.62996
▁legal	-8.63045
▁per	-8.63547
IN	-8.63921
▁so	-8.64149
▁exclusivo	-8.64171
pago	-8.64583
▁16	-8.6475
dominio	-8.64899
­	-8.64899
▁Nacional	-8.64899
▁médica	-8.64899
▁último	-8.64899
▁costo	-8.649
▁proteger	-8.65047
▁Compra	-8.6522
▁financiera	-8.65451
Atención	-8.65915
cal	-8.66041
▁digital	-8.66733
ica	-8.67028
▁an	-8.67087
online	-8.67311
▁semana	-8.67343
▁Educa	-8.67602
▁pendiente	-8.67602
▁Dirección	-8.67602
▁respuesta	-8.67604
▁noviembre	-8.67611
▁caso	-8.67699
les	-8.67706
▁cambiar	-8.6772
▁perfil	-8.67933
▁ex	-8.6805
sión	-8.68406
▁paga	-8.68478
tor	-8.68574
tos	-8.69507
▁Juan	-8.69589
em	-8.69736
info	-8.70118
soporte	-8.70123
25	-8.70379
▁Argentina	-8.70379
▁enviado	-8.70379
▁derecho	-8.7038
▁historial	-8.7038
▁Legal	-8.70386
▁software	-8.7041
▁Av	-8.70429
ntes	-8.7048
▁im	-8.70591
▁San	-8.70752
▁inter	-8.70783
ncia	-8.70846
ún	-8.71243
▁cómo	-8.71279
▁pre	-8.71354
vil	-8.71395
ive	-8.71576
eli	-8.71591
La	-8.72048
cas	-8.72395
▁Gan	-8.7266
▁exclusiva	-8.72727
▁necesitas	-8.72913
gar	-8.73113
▁to	-8.73131
▁Ingres	-8.73236
▁cumpleaños	-8.73236
▁inusual	-8.73236
▁riesgo	-8.73236
▁interés	-8.73285
▁María	-8.73322
▁informar	-8.73342
ña	-8.73542
12	-8.73931
▁premios	-8.73984
:30	-8.74005
▁73	-8.74057
▁Pro	-8.74209
▁ganado	-8.74345
21	-8.74406
▁Ri	-8.74495
ue	-8.74796
▁Lo	-8.74904
nte	-8.75099
19	-8.75423
▁ten	-8.75494
▁pro	-8.75556
iza	-8.75733
encia	-8.75804
▁29	-8.75935
▁entre	-8.76037
mpieza	-8.76178
▁adjunto	-8.76178
▁facled	-8.76178
▁pérdida	-8.76178
▁regalo	-8.76181
▁promoción	-8.76181
▁final	-8.76254
▁descargar	-8.76291
/12	-8.76525
123	-8.76528
▁online	-8.76554
ista	-8.76586
▁oficina	-8.76607
rm	-8.76688
▁advertencia	-8.76724
▁actividades	-8.7731
▁Puede	-8.77467
33	-8.77548
▁haga	-8.77799
▁U	-8.78007
avi	-8.78138
▁todas	-8.78575
ador	-8.7877
▁espera	-8.78935
▁producto	-8.78945
ate	-8.78978
▁AHORA	-8.79208
▁artículo	-8.79208
▁posible	-8.79208
▁transferi	-8.79208
▁portal	-8.79228
cuenta	-8.79245
▁70	-8.79388
enes	-8.79455
ER	-8.79556
illo	-8.79739
able	-8.79754
gue	-8.79824
456	-8.79849
▁Gmail	-8.79926
▁ve	-8.80168
▁hay	-8.80363
RO	-8.80847
▁personas	-8.80892
Tu	-8.8094
sol	-8.81364
▁consulta	-8.81414
▁Necesita	-8.81471
iente	-8.81868
▁hora	-8.82161
tivo	-8.82308
▁Obten	-8.82333
▁bloqueo	-8.82333
▁cámara	-8.82333
▁importante	-8.82333
▁verifique	-8.82338
▁genera	-8.82349
▁peso	-8.82387
seguro	-8.82426
▁Laura	-8.82469
▁Com	-8.82597
▁inmediatamente	-8.82663
▁minutos	-8.82721
AN	-8.82926
▁Inviert	-8.83062
ite	-8.83572
23	-8.83881
▁mensual	-8.85056
▁Un	-8.85065
▁archivos	-8.85072
▁Ana	-8.85096
bre	-8.85307
tificación	-8.85322
▁Bitcoin	-8.85559
▁cierre	-8.85559
▁financiero	-8.85559
▁material	-8.85559
▁proyecto	-8.85559
▁leído	-8.8556
▁Corre	-8.85562
▁revisa	-8.85576
▁Carlos	-8.85592
hace	-8.85602
▁podría	-8.85612
▁#	-8.85618
▁$500	-8.85861
gob	-8.85972
▁Red	-8.86012
▁05	-8.86265
▁leer	-8.86277
▁marca	-8.86328
▁Los	-8.86396
▁intento	-8.86589
01	-8.86744
unt	-8.86905
▁Consultas	-8.87014
▁oficial	-8.87083
act	-8.87305
789	-8.87612
▁+3470	-8.87647
▁car	-8.87804
ha	-8.87831
ces	-8.88661
▁banco	-8.88714
▁$2	-8.88873
▁identificad	-8.88892
▁registrarte	-8.88892
▁informe	-8.88893
▁asegurar	-8.88941
▁comple	-8.89102
empleo	-8.89188
maria	-8.89197
▁50%	-8.89199
▁mu	-8.89331
▁Car	-8.89454
del	-8.89487
▁Son	-8.89697
▁llegar	-8.90048
▁Mari	-8.90106
▁realizar	-8.90175
▁base	-8.90252
rios	-8.90483
DA	-8.90589
verificacion	-8.91489
▁Lu	-8.91733
una	-8.9174
ín	-8.91938
▁programa	-8.91949
▁nov	-8.91971
▁activ	-8.91981
son	-8.92086
universidad	-8.9234
Córdoba	-8.9234
Felicitaciones	-8.9234
▁gratuita	-8.9234
▁siempre	-8.9234
▁condiciones	-8.92341
xterno	-8.92351
▁$5,000	-8.92352
▁temporalmente	-8.92358
▁parece	-8.92391
rotección	-8.92489
▁EN	-8.92771
tiva	-8.92803
▁pasar	-8.92847
th	-8.92854
▁transacciones	-8.92958
bido	-8.93099
▁LA	-8.93208
▁Ben	-8.93274
port	-8.9425
men	-8.94544
▁sea	-8.9474
amiento	-8.94914
▁quiere	-8.95034
87	-8.95214
▁44	-8.95309
ello	-8.95418
▁Mar	-8.95543
80	-8.95757
ualquier	-8.95844
Increíble	-8.95912
▁utiliza	-8.95912
▁virus	-8.95912
▁Sorteo	-8.95912
▁agrega	-8.95912
▁Sistema	-8.95912
▁Datos	-8.95913
▁medio	-8.95914
▁Internacional	-8.95914
▁orden	-8.95915
▁seleccionada	-8.9594
▁extra	-8.95954
centro	-8.95987
iga	-8.9602
15	-8.96184
▁menos	-8.96191
▁vuelo	-8.96282
57	-8.96328
24	-8.96336
▁Fu	-8.96416
Alerta	-8.96454
Oferta	-8.96511
17	-8.969
▁Urgente	-8.96903
▁Á	-8.96937
▁recibe	-8.96961
Con	-8.97266
mág	-8.97368
erra	-8.97547
▁Acced	-8.97587
cada	-8.97637
▁recorda	-8.97983
▁verifica	-8.98246
▁Estimad	-8.98316
▁Recib	-8.98327
▁otros	-8.98412
cial	-8.98739
érminos	-8.99615
▁Bancaria	-8.99615
▁Domínguez	-8.99615
▁WhatsApp	-8.99615
▁iPhone	-8.99615
▁Fernández	-8.99616
▁Oficina	-8.99616
▁eliminar	-8.99616
▁agosto	-8.99616
▁VIP	-8.99618
84	-8.99685
▁disponibles	-8.9974
▁reclamar	-8.99774
▁Todo	-8.99783
▁puedes	-8.99811
tur	-8.99865
▁programado	-8.99887
▁compras	-9.00269
▁comentarios	-9.00345
fra	-9.00429
rán	-9.00782
Te	-9.00819
lia	-9.0089
É	-9.01492
cumplimiento	-9.01622
ngo	-9.01868
▁Má	-9.01927
nda	-9.02016
▁14:3	-9.02191
▁rápidas	-9.02213
68	-9.02236
▁$100.	-9.02284
▁segura	-9.02633
▁iniciar	-9.02716
ale	-9.02758
▁dic	-9.02769
14	-9.03366
CIÓN	-9.03459
▁Tarjeta	-9.03462
▁plataforma	-9.03462
▁resultados	-9.03462
▁rápido	-9.03462
▁Remoto	-9.03463
▁$7	-9.03466
remoto	-9.0347
▁Bueno	-9.03487
▁acceder	-9.03551
STA	-9.03677
▁Financiera	-9.03701
▁anual	-9.03929
▁archivo	-9.04047
segura	-9.04166
▁Tra	-9.04204
ctor	-9.04267
▁beneficio	-9.04278
▁videos	-9.0477
29	-9.05613
30	-9.05788
mu	-9.05831
▁50	-9.05943
▁Aprovecha	-9.06188
antivirus	-9.06242
▁Per	-9.0626
col	-9.06444
▁Dr	-9.06692
fu	-9.06971
ack	-9.07006
LE	-9.07355
▁25.326	-9.07462
▁plazo	-9.07462
▁tratamiento	-9.07462
▁LLC	-9.07462
▁tienda	-9.07464
xyz	-9.07465
copia	-9.07465
partir	-9.07479
▁0.0	-9.07491
▁protección	-9.07539
ure	-9.07581
▁sesión	-9.07818
▁Comp	-9.07889
▁tasa	-9.07958
top	-9.0817
▁Descubr	-9.08314
▁confirmada	-9.0846
▁PM	-9.08485
mpeza	-9.08751
jar	-9.09028
▁cambio	-9.09051
▁curso	-9.091
▁hace	-9.09478
▁responde	-9.09507
erna	-9.09558
puesta	-9.09621
POR	-9.09644
▁descubr	-9.09645
▁trabaja	-9.10047
RA	-9.10318
iembre	-9.11619
USERS	-9.11628
registro	-9.11628
▁Apple	-9.11628
▁López	-9.11628
▁directamente	-9.11628
▁límite	-9.11628
▁preferencia	-9.11628
▁última	-9.11628
▁atención	-9.11629
▁dentro	-9.11629
▁Salgado	-9.11629
▁retiro	-9.11629
▁Baja	-9.1163
▁entrega	-9.11634
▁aplicación	-9.11636
▁clase	-9.11638
▁mantenimiento	-9.11641
▁bono	-9.11662
zar	-9.11707
▁buscando	-9.11722
puesto	-9.11746
▁+3472	-9.11805
▁actualización	-9.11842
▁requiere	-9.12052
▁turno	-9.12092
▁alta	-9.12173
▁Reddit	-9.12244
▁fraude	-9.12381
des	-9.12451
▁Premio	-9.12544
▁toda	-9.12803
pri	-9.13171
LO	-9.13565
▁info	-9.136
ord	-9.13673
▁Be	-9.1396
cliente	-9.14002
▁año	-9.14298
▁mayo	-9.14664
imiento	-9.14683
,500	-9.1471
lic	-9.14721
5%	-9.14774
pres	-9.14872
▁Premios	-9.15029
▁garantiza	-9.15368
▁bien	-9.15475
control	-9.15535
▁Du	-9.15864
amsung	-9.15976
▁anteriormente	-9.15976
▁vigente	-9.15976
▁wallet	-9.15976
edezma	-9.15976
▁previa	-9.15976
▁mucho	-9.15977
central	-9.15977
▁BTC	-9.15977
▁Cliente	-9.15977
▁alguna	-9.15977
obertura	-9.15977
▁foto	-9.16003
▁baja	-9.16014
▁estado	-9.16034
▁Martínez	-9.16036
▁07:	-9.16039
▁+3471	-9.1606
▁pasado	-9.16078
▁internet	-9.16168
▁tener	-9.1623
▁confirmar	-9.16324
▁esperamos	-9.16372
▁+3473	-9.16518
▁Hac	-9.16539
DI	-9.16557
rib	-9.1658
Vall	-9.16623
▁vie	-9.16648
▁CO	-9.16745
▁Juli	-9.16766
▁crea	-9.16928
ira	-9.17107
nete	-9.17172
verificar	-9.17375
Necesita	-9.174
digital	-9.17401
Última	-9.17404
▁exclusivos	-9.17421
▁min	-9.17982
TO	-9.18379
aplica	-9.18803
▁estará	-9.18998
cri	-9.19242
28	-9.19579
▁71	-9.19858
▁disfruta	-9.19879
27	-9.20044
bilidad	-9.20511
ALERTA	-9.20522
▁Sebastián	-9.20522
▁comprometida	-9.20522
▁grave	-9.20522
▁judicial	-9.20522
▁limitada	-9.20522
▁similar	-9.20522
▁suspendida	-9.20522
▁0800-	-9.20522
▁carpeta	-9.20522
▁efectivo	-9.20522
▁licencia	-9.20522
▁ETH	-9.20522
▁graci	-9.20522
▁esperes	-9.20525
▁cuota	-9.20526
▁envía	-9.20527
▁piso	-9.20529
pero	-9.20563
áli	-9.20587
rquez	-9.20605
arece	-9.20648
confiable	-9.20778
▁restaurar	-9.20897
hospital	-9.20975
▁ac	-9.20992
elias	-9.21028
▁Jo	-9.21059
CE	-9.21214
gencia	-9.21238
▁mensuales	-9.21239
viso	-9.21257
▁legales	-9.21429
▁Paga	-9.21543
▁terceros	-9.21587
▁cuan	-9.21763
▁completar	-9.21835
▁préstamos	-9.21975
▁confirmado	-9.22895
0.00	-9.23044
obtener	-9.23103
Feliz	-9.23249
mantener	-9.23253
Esta	-9.23344
ani	-9.23375
age	-9.23712
▁problemas	-9.23747
AR	-9.2436
▁PAR	-9.24565
▁$10	-9.24912
▁Po	-9.24978
nacional	-9.25263
▁identificar	-9.25283
▁Administra	-9.25284
▁comunidad	-9.25284
▁inminente	-9.25284
astillas	-9.25284
▁bonifica	-9.25284
▁afortunado	-9.25284
▁clave	-9.25284
▁enviar	-9.25285
uiz	-9.25292
▁EL	-9.25438
▁Inc	-9.25547
▁aprobado	-9.25564
▁millonario	-9.25835
▁actualiza	-9.25966
▁08	-9.26151
58	-9.26162
▁otra	-9.26435
▁IN	-9.26498
▁Obtén	-9.26502
▁problema	-9.26844
▁rápida	-9.26858
▁otro	-9.26876
▁detalles	-9.26925
dic	-9.27011
▁encontrar	-9.27147
sis	-9.27313
versión	-9.27689
bajo	-9.27927
▁familiar	-9.28142
misión	-9.28552
▁74	-9.29039
para	-9.29076
▁descuentos	-9.29145
lect	-9.29173
53	-9.29185
▁visita	-9.29284
▁hacer	-9.29512
LA	-9.29629
▁60	-9.29854
▁seg	-9.30139
▁fácil	-9.30213
▁$3	-9.30253
▁embargo	-9.30283
libertad	-9.30284
▁correspondiente	-9.30284
▁membresía	-9.30284
▁necesidad	-9.30284
▁nunca	-9.30284
▁Informa	-9.30284
▁pronto	-9.30284
▁Acces	-9.30285
guard	-9.30297
▁privacidad	-9.30309
astre	-9.3031
▁método	-9.30319
▁inicio	-9.30371
▁Día	-9.30486
scam	-9.30568
▁URGENTE	-9.30864
▁internacional	-9.30882
▁IA	-9.31009
▁sala	-9.31161
▁10:1	-9.3121
aje	-9.31348
▁bancarios	-9.31462
▁mejores	-9.31494
▁verificar	-9.31529
proba	-9.31919
▁Email	-9.31933
ME	-9.32056
premium	-9.32382
jp	-9.32427
▁$1000	-9.32585
tificaciones	-9.32628
aza	-9.32695
Trabaj	-9.32835
▁90	-9.3303
▁Marc	-9.33066
▁SE	-9.33247
VI	-9.33291
dores	-9.33362
▁mar	-9.33511
DE	-9.33707
tecta	-9.33727
▁presenta	-9.33818
▁Respond	-9.33824
icio	-9.34065
▁34	-9.34192
▁empleo	-9.35077
▁autoriza	-9.35255
▁requeri	-9.35405
▁Rosa	-9.35409
▁Salud	-9.35426
▁busca	-9.35429
venta	-9.35479
ciudad	-9.35545
▁Univers	-9.35547
Oportunidad	-9.35547
▁ICBC	-9.35547
▁Miguel	-9.35547
▁bloqueado	-9.35547
▁comprometido	-9.35547
▁solución	-9.35547
▁contacte	-9.35547
▁invita	-9.35547
cripto	-9.35548
▁breve	-9.35548
▁multa	-9.35548
liquid	-9.35548
▁10:00	-9.35552
CRE	-9.35559
abc	-9.35585
▁ning	-9.35593
ADO	-9.35623
ión	-9.3565
gust	-9.35664
▁mú	-9.35683
▁comerciales	-9.35697
▁procesar	-9.35703
▁fiscal	-9.3574
▁automático	-9.35747
▁Instagram	-9.35812
▁perderte	-9.35849
▁AM	-9.35989
▁Actualiza	-9.36176
pciones	-9.36407
▁puntos	-9.36983
AM	-9.37373
▁especiales	-9.37548
users	-9.37597
▁11-	-9.3772
1234	-9.3779
▁familia	-9.37855
▁HA	-9.37871
▁Feli	-9.37931
76	-9.3799
▁Solicita	-9.38174
US	-9.38487
nchez	-9.38682
ular	-9.38683
premios	-9.39104
▁respond	-9.39711
▁Pre	-9.39929
dvertencia	-9.40064
39	-9.40293
▁vence	-9.40324
pm	-9.40332
▁Actú	-9.40395
▁Carme	-9.40433
▁falso	-9.40706
illa	-9.40775
▁contactar	-9.40956
▁cubr	-9.41023
étodo	-9.41066
apple	-9.41102
credito	-9.41102
confidencial	-9.41102
CION	-9.41102
ederico	-9.41102
pública	-9.41102
▁crediticio	-9.41102
▁laboral	-9.41102
▁miembros	-9.41102
▁pequeña	-9.41102
▁privadas	-9.41102
▁éxito	-9.41102
▁recomenda	-9.41102
▁conform	-9.41103
▁alguno	-9.41103
lopez	-9.41104
▁incluido	-9.41106
banca	-9.41108
Dinero	-9.41109
▁entrada	-9.41112
▁parcial	-9.41114
▁recordatorio	-9.41115
▁sept	-9.4112
▁Revisa	-9.41124
▁Evit	-9.41153
curriculum	-9.4122
▁Pago	-9.41236
Está	-9.41305
▁18:4	-9.41356
▁Crédito	-9.41384
▁oro	-9.41458
▁perderá	-9.41612
cloud	-9.41727
▁AR	-9.41778
▁Ú	-9.41936
▁pueda	-9.42017
▁preguntas	-9.42216
▁reg	-9.42389
▁exclusivas	-9.42397
ller	-9.42411
torio	-9.42477
▁ignore	-9.42619
▁CON	-9.4291
▁autorizados	-9.43282
▁Promoción	-9.43428
▁pruebas	-9.43649
td	-9.43912
ecursos	-9.43926
octu	-9.44034
▁horarios	-9.44296
▁demanda	-9.44303
▁teng	-9.44394
LI	-9.44492
▁premium	-9.44561
uta	-9.44584
actualizar	-9.45068
34	-9.45193
Sol	-9.45216
63	-9.45409
▁COMPR	-9.45773
▁inc	-9.45836
▁Descarg	-9.45842
cin	-9.45909
▁Alerta	-9.46089
▁inf	-9.46102
tica	-9.46105
▁Recibi	-9.46211
▁interesa	-9.46615
▁pedi	-9.46668
▁emergencia	-9.46984
eintegro	-9.46985
▁Adjunto	-9.46985
▁Andrés	-9.46985
▁Disfrut	-9.46985
▁Microsoft	-9.46985
▁anticipación	-9.46985
▁celular	-9.46985
▁crediticia	-9.46985
▁criptomoneda	-9.46985
▁depósito	-9.46985
▁médico	-9.46985
▁pdfFiller	-9.46985
▁proceder	-9.46985
▁resultar	-9.46985
▁vacaciones	-9.46985
▁Renova	-9.46985
▁graba	-9.46985
▁restablec	-9.46985
▁DNI	-9.46985
▁adapta	-9.46985
▁falta	-9.46986
▁comenzar	-9.46986
▁complicaciones	-9.4699
▁actualice	-9.46991
▁multiplica	-9.46993
▁realice	-9.46994
▁Ahor	-9.46996
▁compartido	-9.46998
▁certificado	-9.47004
▁cru	-9.47005
▁Quiero	-9.47005
line	-9.47006
▁Río	-9.47012
▁juego	-9.47014
▁evento	-9.47101
perez	-9.47124
▁uso	-9.47179
bal	-9.47259
▁Regístr	-9.47284
▁vez	-9.47396
▁encuesta	-9.47419
posit	-9.47653
rate	-9.4804
tico	-9.48052
▁ganancias	-9.48069
▁inicia	-9.48204
▁lujo	-9.48269
tí	-9.48354
▁persona	-9.49066
▁ID	-9.49102
▁you	-9.4918
▁09	-9.49267
▁em	-9.49738
▁horario	-9.49872
▁paso	-9.49974
club	-9.50064
legal	-9.50088
Recib	-9.50103
▁aqui	-9.50334
▁gam	-9.50394
pla	-9.50838
uni	-9.51138
creto	-9.51309
▁Aprovech	-9.51514
▁responder	-9.51527
acio	-9.51721
▁años	-9.51946
jose	-9.52238
oyo	-9.52383
Tene	-9.52569
ENTE	-9.52905
▁Recibe	-9.53013
▁$9	-9.53081
express	-9.53173
▁Espera	-9.53179
▁$8	-9.53191
Ciudad	-9.53235
▁Daniel	-9.53235
▁GRATIS	-9.53235
▁Premium	-9.53235
▁Pérez	-9.53235
▁Supervielle	-9.53235
▁chance	-9.53235
▁inconveniente	-9.53235
▁libro	-9.53235
▁mercado	-9.53235
▁necesaria	-9.53235
▁peligroso	-9.53235
▁virtual	-9.53235
▁Ángel	-9.53235
▁$1,000,000	-9.53235
▁Presenta	-9.53235
▁camino	-9.53235
ltipl	-9.53235
▁amenaza	-9.53235
▁alcanza	-9.53235
▁conocer	-9.53235
▁fecha	-9.53235
renovar	-9.53235
▁Torres	-9.53236
▁cargos	-9.53238
rifa	-9.53238
▁bienvenida	-9.53238
▁movimientos	-9.53244
▁Jorge	-9.53245
▁propio	-9.5326
▁publicidad	-9.5326
▁gastos	-9.53271
▁investigación	-9.53275
▁permanentemente	-9.53277
▁15/12	-9.53319
cter	-9.53336
▁ventas	-9.53359
BLE	-9.53379
▁cena	-9.53392
▁11:4	-9.5347
▁programada	-9.53491
onde	-9.53537
▁finaliza	-9.53547
shop	-9.5359
▁actualizado	-9.53767
▁11:0	-9.5378
▁gusta	-9.53842
grandes	-9.53868
▁16:0	-9.53902
▁aproba	-9.53999
▁primera	-9.54105
▁Central	-9.54334
▁$100	-9.54443
prestamos	-9.54475
▁ju	-9.54679
berto	-9.54689
▁10:2	-9.54832
▁primero	-9.55021
▁Mate	-9.55067
tura	-9.55113
▁mod	-9.55486
▁Sos	-9.55578
▁mal	-9.56276
▁club	-9.56516
Santa	-9.56566
▁unir	-9.56631
iva	-9.56733
oficial	-9.56771
▁acced	-9.57242
cent	-9.57511
notificaciones	-9.57516
▁Mill	-9.57547
72	-9.57825
ly	-9.57888
edor	-9.58818
mpresa	-9.58892
▁perder	-9.5891
▁sal	-9.59534
btén	-9.59748
fina	-9.59749
▁expira	-9.59792
visión	-9.59833
▁Guard	-9.59901
Reclámalo	-9.59901
▁Facundo	-9.59901
▁Méndez	-9.59901
▁Oficial	-9.59901
▁Santiago	-9.59901
▁crítica	-9.59901
▁herramienta	-9.59901
▁identificación	-9.59901
▁posibilidad	-9.59901
▁acepta	-9.59901
▁amigos	-9.59901
▁instante	-9.59901
▁abonar	-9.59902
▁examen	-9.59902
▁experto	-9.59902
driana	-9.59902
▁Sender	-9.59902
▁cupón	-9.59902
▁Club	-9.59903
▁reporte	-9.59903
▁motivo	-9.59906
▁obligatoria	-9.59907
Busca	-9.59911
▁capacitación	-9.59918
▁administrativ	-9.59932
edad	-9.59952
▁actualizaciones	-9.59956
PLC	-9.59958
▁Internet	-9.59965
▁app	-9.59966
▁compartir	-9.59981
▁the	-9.59985
martinez	-9.60005
▁presente	-9.60032
▁sabe	-9.6004
▁redes	-9.60107
▁exce	-9.60122
▁mundo	-9.60154
eriores	-9.60214
lmacenamiento	-9.60237
place	-9.60262
▁participar	-9.60411
▁fortuna	-9.60465
▁YA	-9.60479
▁10:5	-9.60488
▁válida	-9.60525
GB	-9.60525
▁mié	-9.60539
▁bienes	-9.60673
▁of	-9.60695
▁cará	-9.60716
▁eres	-9.60746
dora	-9.60804
uscríbete	-9.61053
▁12:1	-9.61064
▁verte	-9.6126
▁$6	-9.61866
▁obten	-9.61926
km	-9.62013
▁Responde	-9.62158
▁tal	-9.62299
descarga	-9.62561
scargue	-9.62562
promo	-9.62608
▁ley	-9.62882
liza	-9.62969
cón	-9.63112
Gui	-9.63393
trabaja	-9.63834
oferta	-9.63918
Puede	-9.63919
▁par	-9.63937
▁11:3	-9.64022
▁Gran	-9.64677
oja	-9.64747
use	-9.6479
ganadores	-9.64991
toria	-9.65509
cina	-9.65662
▁PA	-9.65798
sistencia	-9.66011
seguir	-9.66051
lid	-9.66319
camp	-9.66325
ospital	-9.66327
▁Confirm	-9.66452
ontenido	-9.66977
administra	-9.67011
ransferencia	-9.67012
iempo	-9.67015
▁obliga	-9.67029
deportivo	-9.67044
Madrid	-9.67044
▁BANCO	-9.67044
▁CABA	-9.67044
▁CUIT	-9.67044
▁Carolina	-9.67044
▁Coordina	-9.67044
▁Facebook	-9.67044
▁Factura	-9.67044
▁Gabriela	-9.67044
▁Proyecto	-9.67044
▁Rodrigo	-9.67044
▁computadora	-9.67044
▁consentimiento	-9.67044
▁financiamiento	-9.67044
▁legítim	-9.67044
spacho	-9.67044
▁Cruz	-9.67044
▁Javier	-9.67044
▁cobro	-9.67044
▁preocupaciones	-9.67044
▁previo	-9.67044
Girona	-9.67045
▁Lotería	-9.67045
▁reclamo	-9.67045
▁navegador	-9.67045
▁valida	-9.67045
▁tendrá	-9.67046
▁Paula	-9.67046
▁firma	-9.67048
▁bolet	-9.67048
miguel	-9.67049
▁Rojas	-9.6705
▁Curso	-9.67063
▁luz	-9.67065
▁tipo	-9.67065
▁Elena	-9.67078
78	-9.67082
▁llamada	-9.67084
▁Valer	-9.67095
▁$3,000	-9.67108
▁disposición	-9.67127
DEL	-9.67139
fernandez	-9.67143
Cant	-9.67169
roduc	-9.67187
▁agota	-9.6719
▁Isa	-9.67229
▁Servicio	-9.67262
rema	-9.67263
▁09:1	-9.67302
▁garantizada	-9.67492
ponga	-9.67651
▁tan	-9.67666
▁imperdibles	-9.67708
▁18:1	-9.67718
curso	-9.67913
▁Fon	-9.67972
▁disfrut	-9.68075
▁Participa	-9.68135
bel	-9.68225
agua	-9.68391
desbloquear	-9.68426
NE	-9.68529
Ganaste	-9.68944
▁llevar	-9.69366
▁Ger	-9.69527
▁int	-9.69566
llar	-9.69626
▁valor	-9.69848
▁actual	-9.69869
ccedé	-9.70117
ntidad	-9.70411
NO	-9.70422
▁47	-9.70994
▁prueba	-9.71344
Promoción	-9.71569
▁formal	-9.71606
UM	-9.71658
▁Consulta	-9.71865
juan	-9.72153
▁solicit	-9.7227
▁intent	-9.72572
▁deuda	-9.7259
bol	-9.72858
▁Activ	-9.73135
bit	-9.73263
▁presta	-9.73525
base	-9.73942
obranzas	-9.74125
elad	-9.74251
mento	-9.74546
▁cumpl	-9.74608
rueba	-9.7467
▁100	-9.74683
diario	-9.74699
rofesional	-9.74736
recuperar	-9.74736
FAKE	-9.74736
ontáctanos	-9.74736
xample	-9.74736
▁Académic	-9.74736
▁Agradec	-9.74736
▁Encuentr	-9.74736
▁Envío	-9.74736
▁Galicia	-9.74736
▁Group	-9.74736
▁Gómez	-9.74736
▁Humanos	-9.74736
▁Sofía	-9.74736
▁gratuito	-9.74736
▁inscripción	-9.74736
▁jefe	-9.74736
▁noticias	-9.74736
▁operativo	-9.74736
▁requisitos	-9.74736
▁supermercados	-9.74736
▁técnico	-9.74736
▁viajar	-9.74736
▁encuentra	-9.74736
▁quién	-9.74737
▁ubica	-9.74737
▁viola	-9.74737
▁MÁS	-9.74737
▁sanciones	-9.74737
mendez	-9.74737
▁defini	-9.74737
▁Precio	-9.74738
▁opini	-9.74738
▁normas	-9.74739
▁negocio	-9.74739
anjea	-9.74739
▁modelo	-9.7474
Valencia	-9.7474
▁14:00	-9.74741
juri	-9.74741
▁asegurado	-9.74742
▁15:00	-9.74743
▁Conoce	-9.74743
▁dolor	-9.74744
vip	-9.74749
▁causa	-9.74751
gulo	-9.74752
▁ejecutar	-9.74753
▁Registrate	-9.74755
▁allí	-9.74762
ñez	-9.74763
▁hotel	-9.74765
▁automáticamente	-9.74767
▁efecto	-9.74772
úrate	-9.7478
▁ofrecemos	-9.74809
▁cosa	-9.7481
▁Bust	-9.74815
vargas	-9.74867
oxana	-9.74879
▁tanto	-9.74898
▁hacerlo	-9.74905
▁aprobada	-9.74911
▁semanal	-9.74929
argas	-9.74975
▁presentación	-9.7511
▁mil	-9.7515
security	-9.75171
zed	-9.75206
marketing	-9.75232
▁semanales	-9.75308
▁10:4	-9.75318
▁IP	-9.75327
▁Reclama	-9.75352
▁llam	-9.75366
▁contrato	-9.75381
▁perfect	-9.75407
▁13:2	-9.7541
upos	-9.75469
▁cerrada	-9.75723
erpo	-9.75761
▁mejorar	-9.75977
▁94	-9.76045
▁18:0	-9.76067
▁bc	-9.7608
ciso	-9.7623
742	-9.76316
▁Alar	-9.76485
▁mayor	-9.76535
ger	-9.7676
inversion	-9.77323
▁algo	-9.77419
abrá	-9.77473
▁elegi	-9.77494
▁manten	-9.78148
feli	-9.78607
▁comp	-9.78746
rge	-9.78904
▁recib	-9.78906
autoridades	-9.7896
%	-9.79317
así	-9.79409
▁user	-9.79573
valor	-9.79888
Solicita	-9.79908
urgente	-9.7995
personal	-9.79981
trabajo	-9.80005
▁postular	-9.80013
$	-9.80323
▁cambi	-9.80619
▁pagar	-9.80724
SIN	-9.80782
ernandez	-9.81133
servicio	-9.81214
▁89	-9.81247
▁interv	-9.81422
▁Flor	-9.81962
▁Actualiz	-9.82066
▁asesor	-9.82089
▁Ju	-9.82233
▁65	-9.82485
orporación	-9.8249
▁adicional	-9.82577
▁Necesit	-9.82677
▁Registr	-9.8305
arantía	-9.83063
Descuento	-9.8307
OFERTA	-9.8307
Salamanca	-9.8307
azquez	-9.8307
ficticio	-9.8307
protegido	-9.8307
struir	-9.8307
ÚLTIM	-9.8307
▁Adjunta	-9.8307
▁Amazon	-9.8307
▁Awesome	-9.8307
▁Cancelaciones	-9.8307
▁Empleo	-9.8307
▁Francisco	-9.8307
▁SERVICIO	-9.8307
▁desarrollo	-9.8307
▁esfuerzo	-9.8307
▁gestión	-9.8307
▁juntos	-9.8307
▁página	-9.8307
▁readClaps	-9.8307
▁recompensa	-9.8307
▁responsable	-9.8307
amazon	-9.8307
lectronic	-9.8307
▁Verónica	-9.8307
▁20241014_17	-9.8307
▁sensible	-9.8307
Último	-9.8307
▁estudio	-9.8307
▁ahorro	-9.8307
▁nivel	-9.8307
▁Pablo	-9.83071
▁único	-9.83071
▁Contrata	-9.83071
▁expresa	-9.83071
▁Pedro	-9.83071
Segovia	-9.83071
▁ideal	-9.83071
▁ahorra	-9.83071
▁contigo	-9.83073
▁Ignacio	-9.83074
refiere	-9.83074
▁Plana	-9.83077
Vizca	-9.83078
▁establec	-9.83079
▁currículum	-9.83079
▁consumo	-9.83081
▁obra	-9.83084
▁indican	-9.83085
▁acredit	-9.83089
entras	-9.8309
▁Válid	-9.83091
▁tarea	-9.83092
,200	-9.83099
abria	-9.83122
▁Opciones	-9.83159
ware	-9.8316
▁Jord	-9.83184
▁General	-9.83186
ragon	-9.83187
▁Luis	-9.83217
▁Palm	-9.83231
▁usado	-9.83233
torres	-9.8324
andra	-9.83246
▁tú	-9.83254
▁duplic	-9.83268
▁participación	-9.83278
▁contactarnos	-9.83293
dominguez	-9.83356
Falcó	-9.83358
▁sociales	-9.8345
▁entregado	-9.83598
▁sujeto	-9.83622
▁expuesto	-9.83627
▁13:0	-9.83727
▁interesado	-9.83736
▁Lament	-9.83792
▁jue	-9.83871
▁tuyo	-9.83897
valer	-9.8392
emp	-9.83935
▁14:2	-9.84059
▁fac	-9.84096
▁siga	-9.84192
▁incluyen	-9.84383
OR	-9.84536
IL	-9.84824
IV	-9.84939
▁Sanch	-9.86997
▁pó	-9.87292
ilar	-9.87365
RR	-9.87479
▁15:3	-9.87776
▁83	-9.87883
EL	-9.88597
▁prob	-9.88646
▁09:3	-9.88677
▁85	-9.89068
2024	-9.89119
▁autorizado	-9.89143
Aprovecha	-9.89263
erías	-9.8965
nico	-9.90347
Recuerda	-9.90502
CB	-9.90592
▁sald	-9.90657
ijo	-9.9083
▁Estado	-9.90874
CIA	-9.909
▁Castell	-9.91014
▁Contact	-9.91018
▁Solicit	-9.91119
local	-9.91227
▁notifica	-9.91467
▁captura	-9.91508
cumulá	-9.91548
fectado	-9.91574
notificacion	-9.91651
▁lun	-9.92056
oftware	-9.92057
Aprende	-9.92161
OPORTUNIDAD	-9.92161
cultural	-9.92161
opyright	-9.92161
proteccion	-9.92161
sombras	-9.92161
▁Además	-9.92161
▁Control	-9.92161
▁Hierro	-9.92161
▁Menéndez	-9.92161
▁Resultado	-9.92161
▁Spotify	-9.92161
▁aniversario	-9.92161
▁coordina	-9.92161
▁instantánea	-9.92161
▁natural	-9.92161
▁negociar	-9.92161
▁responsabilidad	-9.92161
▁rutina	-9.92161
▁seminario	-9.92161
▁sorpresa	-9.92161
▁suplemento	-9.92161
▁técnica	-9.92161
▁$4,500	-9.92161
▁diverti	-9.92161
▁principal	-9.92161
▁teatro	-9.92161
icbc	-9.92161
oculto	-9.92161
▁nadie	-9.92161
▁Lucía	-9.92161
▁termina	-9.92161
abogado	-9.92161
▁reciente	-9.92161
▁Bloque	-9.92161
▁segundo	-9.92162
▁Diego	-9.92162
▁contratando	-9.92162
▁impuestos	-9.92162
▁contratación	-9.92162
▁políticas	-9.92162
▁escape	-9.92163
▁fijos	-9.92163
▁robar	-9.92163
▁medida	-9.92163
▁cerca	-9.92164
▁hogar	-9.92165
compañ	-9.92167
gomez	-9.92168
▁crees	-9.92168
▁destacada	-9.9217
▁taller	-9.9217
▁vivi	-9.9217
TODO	-9.92174
▁Reyes	-9.92176
▁tarde	-9.92176
▁destino	-9.92183
▁propiedad	-9.92183
support	-9.92185
456789	-9.92188
▁documentación	-9.92196
diaz	-9.92196
scrito	-9.92204
seguimiento	-9.92209
▁serie	-9.92216
▁Local	-9.92226
▁comprometedoras	-9.92227
rojas	-9.9223
▁noche	-9.9223
autista	-9.92231
rtiz	-9.92237
▁sueños	-9.92247
▁Seguro	-9.92257
▁revisión	-9.92257
▁conciertos	-9.92263
▁exacta	-9.92277
xtendi	-9.92284
▁diarios	-9.92288
▁fácilmente	-9.92292
▁ayudarte	-9.9232
▁expirar	-9.92327
▁inversión	-9.92332
repl	-9.92345
▁UN	-9.92371
edidos	-9.92412
▁Nic	-9.92436
erif	-9.92439
▁publicar	-9.92495
mbre	-9.92504
▁tengas	-9.92528
▁Luna	-9.92608
▁Desarrollo	-9.92674
nual	-9.92678
▁reprogram	-9.92835
rtega	-9.92841
logi	-9.92912
same	-9.92937
▁elegir	-9.93042
ctividad	-9.93051
▁controla	-9.93114
▁aseguran	-9.93151
vic	-9.93192
▁for	-9.93275
Pont	-9.93281
Castelló	-9.93328
Actúa	-9.93349
▁vencer	-9.93471
▁19:3	-9.93758
León	-9.94025
▁recibo	-9.94052
eferi	-9.94199
▁oct	-9.94203
▁rela	-9.94252
▁38	-9.9433
sultorio	-9.9486
▁detect	-9.95309
Grand	-9.95323
jemplos	-9.96009
▁Lup	-9.96876
OW	-9.96961
▁quier	-9.97161
▁descarg	-9.97174
planes	-9.97516
úl	-9.97909
▁confirme	-9.98168
uerta	-9.98375
▁video	-9.98733
▁presentar	-9.98978
ayuda	-9.99041
(	-9.99075
ropa	-9.99512
5.00	-9.9963
▁proces	-10.0049
▁incluye	-10.0059
scríbete	-10.0062
▁participa	-10.0091
loud	-10.0103
▁gustar	-10.0126
solucion	-10.0164
▁cuestiona	-10.0168
▁public	-10.0175
ntrega	-10.0209
▁permanente	-10.021
QUE	-10.021
Quier	-10.0213
ización	-10.0215
úmero	-10.0215
▁interrupci	-10.0216
institutoeduca	-10.0216
crypto	-10.0216
paypal	-10.0216
netflix	-10.0216
tecnologi	-10.0216
▁Guzm	-10.0216
▁hipoteca	-10.0216
▁victim	-10.0216
habilitad	-10.0216
odriguez	-10.0216
▁Avanzad	-10.0216
▁Buendía	-10.0216
▁Cancelar	-10.0216
▁Horario	-10.0216
▁Jurídic	-10.0216
▁LinkedIn	-10.0216
▁Mendoza	-10.0216
▁MongoDB	-10.0216
▁Morales	-10.0216
▁Secretaría	-10.0216
▁aprender	-10.0216
▁atender	-10.0216
▁desconocida	-10.0216
▁diferencia	-10.0216
▁impuls	-10.0216
▁irregularidad	-10.0216
▁operaciones	-10.0216
▁público	-10.0216
▁reputación	-10.0216
▁resumen	-10.0216
▁distancia	-10.0216
▁renuev	-10.0216
▁volupta	-10.0216
Tamarit	-10.0216
▁agradec	-10.0216
▁arresto	-10.0216
▁continu	-10.0216
▁entrenamiento	-10.0216
▁OFF	-10.0216
▁fiesta	-10.0216
▁transacci	-10.0216
▁muestra	-10.0216
▁carrera	-10.0216
párrafo	-10.0216
▁content	-10.0216
▁interrupciones	-10.0216
▁referen	-10.0216
▁SHO	-10.0216
▁junta	-10.0216
▁comodidad	-10.0216
▁personalizado	-10.0216
riadna	-10.0216
ciéndo	-10.0216
Problema	-10.0216
▁Unidos	-10.0216
▁Java	-10.0216
cnica	-10.0216
▁presencia	-10.0216
▁Guti	-10.0216
▁escapa	-10.0216
▁lugar	-10.0217
▁retira	-10.0217
rapido	-10.0217
▁Natali	-10.0217
work	-10.0217
▁Visita	-10.0217
▁intereses	-10.0217
▁Barre	-10.0217
▁duda	-10.0218
▁país	-10.0218
indicar	-10.0218
Noticia	-10.0218
▁Bonifica	-10.0219
▁biblioteca	-10.0219
ierde	-10.0219
menciona	-10.022
▁metas	-10.022
▁You	-10.0221
culo	-10.0221
▁suerte	-10.0221
▁Fuente	-10.0222
▁Querid	-10.0222
▁Hay	-10.0223
▁salir	-10.0223
▁ilegal	-10.0224
▁Canal	-10.0224
nsito	-10.0224
▁compart	-10.0224
▁Financiación	-10.0225
▁Mariano	-10.0225
▁Podr	-10.0228
▁pena	-10.0229
▁Sara	-10.023
riel	-10.0236
ulina	-10.0237
▁tuyas	-10.0238
▁Marcos	-10.0243
▁avanzado	-10.0248
▁08:4	-10.0248
▁destinatario	-10.0253
▁fun	-10.0254
masi	-10.0255
bril	-10.026
activ	-10.0262
luis	-10.0263
rrez	-10.0265
▁Rosal	-10.0266
soluciones	-10.0268
▁93	-10.0271
enza	-10.0274
▁mayores	-10.0295
▁11:1	-10.0297
lgado	-10.0301
▁Viaj	-10.0311
juven	-10.0324
▁Esto	-10.0327
▁vari	-10.0344
▁Meg	-10.0349
▁obtenid	-10.0388
darte	-10.0403
▁aprovecha	-10.0422
▁COMPRA	-10.043
▁12:2	-10.0441
▁vot	-10.045
▁vemos	-10.0457
rgan	-10.0458
MI	-10.0464
ional	-10.0505
acciones	-10.0514
▁postula	-10.0599
▁96	-10.0648
▁recordar	-10.0683
MÉ	-10.0764
GAN	-10.0823
▁Qued	-10.0847
▁primer	-10.0858
▁dato	-10.1002
dinero	-10.1005
ransforma	-10.1011
Urgente	-10.1013
Gracias	-10.1018
demanda	-10.1018
▁off	-10.1028
manda	-10.1043
mpl	-10.1064
super	-10.1114
ONO	-10.1146
▁Roc	-10.1153
▁Pol	-10.117
▁energ	-10.117
miento	-10.118
▁Aseg	-10.1234
▁pasa	-10.1276
▁social	-10.1282
andres	-10.129
oogle	-10.1307
▁prove	-10.1315
▁conciert	-10.1315
▁Oliv	-10.1315
iblioteca	-10.1324
period	-10.1324
speramos	-10.1325
sueño	-10.1327
benitez	-10.1327
gutierrez	-10.1327
▁Electrónic	-10.1327
▁celebr	-10.1327
Barcelona	-10.1327
Cáceres	-10.1327
eclutamiento	-10.1327
iménez	-10.1327
microsoft	-10.1327
newsletter	-10.1327
rusted	-10.1327
▁Aumenta	-10.1327
▁Cultural	-10.1327
▁Deportivo	-10.1327
▁Diseña	-10.1327
▁Institut	-10.1327
▁Netflix	-10.1327
▁Prime	-10.1327
▁Ramírez	-10.1327
▁Silvia	-10.1327
▁Sombra	-10.1327
▁Twitter	-10.1327
▁Villanueva	-10.1327
▁bandeja	-10.1327
▁cancelar	-10.1327
▁comprobante	-10.1327
▁domicilio	-10.1327
▁económicas	-10.1327
▁electrónica	-10.1327
▁normativa	-10.1327
▁reclutador	-10.1327
▁referidos	-10.1327
▁renovación	-10.1327
▁revolucionario	-10.1327
▁suficiente	-10.1327
▁suspensión	-10.1327
▁tecnología	-10.1327
aspirante	-10.1327
atriz	-10.1327
roporciona	-10.1327
▁$50,000	-10.1327
▁Personal	-10.1327
▁recoger	-10.1327
imenez	-10.1327
ovistar	-10.1327
▁Condiciones	-10.1327
▁PREMI	-10.1327
parecido	-10.1327
▁Agrega	-10.1327
▁Protege	-10.1327
▁usted	-10.1327
▁afiliad	-10.1327
▁token	-10.1327
heck	-10.1327
conocimiento	-10.1327
▁Carrera	-10.1327
▁acerca	-10.1327
▁Hotel	-10.1327
▁café	-10.1327
Tomás	-10.1327
azaret	-10.1327
▁distribución	-10.1327
▁HOY	-10.1327
▁Andre	-10.1327
▁Producto	-10.1327
▁pudie	-10.1327
engine	-10.1327
▁vital	-10.1327
▁ciudadano	-10.1327
ccount	-10.1328
apital	-10.1328
▁instala	-10.1328
▁apoyo	-10.1328
▁17:00	-10.1328
ristian	-10.1328
▁PROMOCIÓN	-10.1328
▁Nadi	-10.1328
▁24/7	-10.1328
▁José	-10.1328
aguil	-10.1328
▁funciona	-10.1328
▁Clara	-10.1329
▁conexión	-10.1329
vedades	-10.133
▁habla	-10.133
▁normalidad	-10.133
viral	-10.1331
▁robo	-10.1331
▁misma	-10.1331
▁propuesta	-10.1332
▁impres	-10.1332
▁procesada	-10.1332
▁soña	-10.1335
▁claras	-10.1335
▁pague	-10.1336
mentari	-10.1337
▁mont	-10.1337
▁17:30	-10.1338
Olivera	-10.1339
▁$200	-10.1341
▁Nicol	-10.1343
Soria	-10.1343
▁salón	-10.1343
google	-10.1348
envio	-10.1354
manuel	-10.1355
▁$99	-10.1356
▁acre	-10.1362
Parej	-10.1371
▁09:0	-10.1375
oliv	-10.1383
▁17:4	-10.1384
▁actualizada	-10.1385
strar	-10.1399
Protej	-10.1403
▁Mur	-10.1404
▁capturada	-10.1408
uth	-10.1413
▁17:1	-10.1433
Llano	-10.1452
▁17:2	-10.1477
▁deudor	-10.1484
▁15:2	-10.154
Elias	-10.1553
▁Bon	-10.161
proto	-10.1619
secret	-10.164
▁pone	-10.1658
▁Municipal	-10.1691
▁accedid	-10.1761
▁Manten	-10.1786
diz	-10.1892
pira	-10.1914
umplimiento	-10.1922
▁denuncia	-10.1939
ALL	-10.198
und	-10.1983
sesoría	-10.2063
▁art	-10.2089
▁Inver	-10.2108
▁llega	-10.2136
versiones	-10.2161
▁punto	-10.2232
ult	-10.2246
quiere	-10.226
Bienvenido	-10.2263
confirma	-10.2267
promociones	-10.2273
compra	-10.2275
vierte	-10.2276
Obtén	-10.2281
nformática	-10.2312
alvo	-10.2362
▁solicitad	-10.2398
perfiles	-10.2418
uvenil	-10.2443
▁participante	-10.2444
▁$5	-10.2457
iend	-10.247
▁Reclam	-10.2476
licante	-10.2484
respo	-10.2515
sbloquea	-10.2528
anuel	-10.2546
ventos	-10.2552
igencia	-10.2552
mentacion	-10.2554
▁evit	-10.2556
Pedi	-10.2558
▁Elige	-10.2564
▁Inter	-10.2568
▁temporal	-10.257
rivacidad	-10.257
▁Off	-10.2572
omienza	-10.2573
▁Bau	-10.2573
galan	-10.2575
ifique	-10.2576
silenci	-10.2577
tribución	-10.2577
belleza	-10.2577
whatsapp	-10.2577
estudiante	-10.2577
irginia	-10.2577
▁instru	-10.2577
corporacion	-10.2577
▁#789456	-10.2577
-5678	-10.2577
NUEVO	-10.2577
conómicos	-10.2577
edificio	-10.2577
escuelapri	-10.2577
illalonga	-10.2577
ilvestre	-10.2577
tributari	-10.2577
▁Agenda	-10.2577
▁Clínic	-10.2577
▁Cánovas	-10.2577
▁Explora	-10.2577
▁Gomez	-10.2577
▁HSBC	-10.2577
▁Incluye	-10.2577
▁Isidro	-10.2577
▁Mejora	-10.2577
▁Nuestra	-10.2577
▁PayPal	-10.2577
▁Perplexity	-10.2577
▁Platzi	-10.2577
▁Rafael	-10.2577
▁Ramiro	-10.2577
▁Zabal	-10.2577
▁actúas	-10.2577
▁adultos	-10.2577
▁clínicos	-10.2577
▁devolución	-10.2577
▁diferente	-10.2577
▁débito	-10.2577
▁manera	-10.2577
▁máxim	-10.2577
▁promocional	-10.2577
▁práctic	-10.2577
▁reactivarl	-10.2577
▁recopil	-10.2577
▁ritmo	-10.2577
▁sencilla	-10.2577
▁servidores	-10.2577
▁sospechoso	-10.2577
▁sucursal	-10.2577
▁transparente	-10.2577
▁vacunación	-10.2577
▁vehículo	-10.2577
▁volver	-10.2577
configura	-10.2577
ompatible	-10.2577
▁instrucciones	-10.2577
▁mínimo	-10.2577
▁preferid	-10.2577
▁system	-10.2577
bitcoin	-10.2577
limpia	-10.2577
▁Dolore	-10.2577
▁Invita	-10.2577
▁discuti	-10.2577
▁distin	-10.2577
▁millones	-10.2577
Jaén	-10.2577
▁Cecili	-10.2577
▁Miralles	-10.2577
▁karma	-10.2577
▁manej	-10.2577
specto	-10.2577
▁Norton	-10.2577
▁Historia	-10.2577
▁profesionales	-10.2577
▁rectificación	-10.2577
Zapat	-10.2577
▁$15,000	-10.2577
TIZ	-10.2577
▁Rueda	-10.2577
▁Realiza	-10.2577
lvarado	-10.2577
defensa	-10.2577
olítica	-10.2577
▁Inmediat	-10.2577
Zamora	-10.2577
▁consejo	-10.2577
▁entrevista	-10.2578
vedra	-10.2578
▁AGEN	-10.2578
▁Cantero	-10.2578
▁Tenorio	-10.2578
▁lotería	-10.2578
▁Pozo	-10.2578
Aplica	-10.2578
▁desactivad	-10.2578
▁fotografía	-10.2578
▁09:4	-10.2578
▁Vence	-10.2578
3214	-10.2578
▁20:00	-10.2578
ransaccional	-10.2578
▁Domi	-10.2578
▁obligatorio	-10.2579
▁Lorenz	-10.2579
isponibilidad	-10.2579
▁unidades	-10.2579
▁agente	-10.2579
▁ataque	-10.2579
revista	-10.2579
▁puntualidad	-10.258
▁Adela	-10.258
▁Susana	-10.258
amayo	-10.258
inscribete	-10.2581
dark	-10.2581
▁$4,	-10.2581
▁Solucion	-10.2582
ICO	-10.2582
▁doble	-10.2582
▁Marín	-10.2583
▁desarrollador	-10.2583
adilla	-10.2583
▁Gol	-10.2584
▁aplicará	-10.2586
▁Felicia	-10.2587
▁Liberté	-10.2587
dentidad	-10.2588
▁procesado	-10.2588
▁puerta	-10.2589
ratis	-10.2589
odoro	-10.2589
▁Play	-10.259
▁Piñ	-10.2591
visa	-10.2591
▁08:2	-10.2593
▁aula	-10.2594
▁Gesti	-10.2596
claración	-10.2599
udio	-10.2599
▁19:4	-10.2605
ompany	-10.2605
dible	-10.2608
TOP	-10.261
▁Marcel	-10.2611
▁12:5	-10.2614
New	-10.2615
▁Simó	-10.2617
▁22:5	-10.2617
bella	-10.2619
desma	-10.2626
▁16:4	-10.2627
HH	-10.2627
▁80%	-10.2628
▁Mira	-10.2628
moran	-10.2629
▁Eut	-10.2641
▁regula	-10.2651
▁14:4	-10.2654
haves	-10.2662
▁preventiv	-10.2663
TOS	-10.2675
▁04:1	-10.272
▁18:2	-10.2722
ultad	-10.2731
spejo	-10.2737
RÁ	-10.2747
▁20:1	-10.2758
ocumentación	-10.2777
▁12:0	-10.2797
Segura	-10.2804
nté	-10.281
sanjo	-10.2846
Alme	-10.2862
▁Fernand	-10.2864
RES	-10.2886
ngas	-10.2909
PRES	-10.2925
aire	-10.2949
deudas	-10.3023
▁Juanit	-10.3028
ecla	-10.3088
istic	-10.3094
▁coopera	-10.312
▁informacion	-10.3164
nunciado	-10.3259
▁encontra	-10.3441
efect	-10.3484
▁lleva	-10.3541
poner	-10.3657
▁bancario	-10.3661
▁tercero	-10.3662
▁fondo	-10.3669
Descubr	-10.3691
financiera	-10.3694
talles	-10.371
▁aprovech	-10.3712
▁necesit	-10.3724
trabajar	-10.3726
▁Segu	-10.3739
▁confirm	-10.377
▁08:3	-10.3778
bloquear	-10.3781
▁gran	-10.3811
▁cerrad	-10.3826
▁Consult	-10.384
face	-10.3869
▁válid	-10.3871
365	-10.3875
cuesta	-10.3902
ALES	-10.3947
adela	-10.3972
clara	-10.3977
mplemente	-10.3983
lead	-10.3983
▁Libert	-10.3994
ódigo	-10.3999
▁normal	-10.4002
▁ejecu	-10.4003
▁ejerc	-10.4005
municip	-10.4005
▁significa	-10.4006
gabriela	-10.4006
ramirez	-10.4006
▁específic	-10.4006
555-7890	-10.4006
FELICITACIONES	-10.4006
Ibáñez	-10.4006
beltran	-10.4006
corporativa	-10.4006
ndroid	-10.4006
ndustria	-10.4006
orprende	-10.4006
orrecilla	-10.4006
videoconferencia	-10.4006
órmula	-10.4006
▁Améric	-10.4006
▁Antoni	-10.4006
▁Antúnez	-10.4006
▁Azorin	-10.4006
▁Disponible	-10.4006
▁Express	-10.4006
▁Herranz	-10.4006
▁Hertz	-10.4006
▁INMEDIATAMENTE	-10.4006
▁Ofrecemos	-10.4006
▁PRODUCTO	-10.4006
▁PUBLICA	-10.4006
▁Saldaña	-10.4006
▁Torrent	-10.4006
▁Villaverde	-10.4006
▁arrugas	-10.4006
▁asombros	-10.4006
▁cancelada	-10.4006
▁comisiones	-10.4006
▁comunitario	-10.4006
▁contractual	-10.4006
▁efectivas	-10.4006
▁eliminada	-10.4006
▁increible	-10.4006
▁inteligente	-10.4006
▁lealtad	-10.4006
▁liberar	-10.4006
▁mínima	-10.4006
▁oscuro	-10.4006
▁palabra	-10.4006
▁pensada	-10.4006
▁publique	-10.4006
▁recogido	-10.4006
▁registrado	-10.4006
▁sencillo	-10.4006
▁triple	-10.4006
▁valioso	-10.4006
spotify	-10.4006
▁Calderon	-10.4006
▁Ochoa	-10.4006
▁fraudulent	-10.4006
▁gift	-10.4006
▁indefinida	-10.4006
▁paciencia	-10.4006
ENTA	-10.4006
allester	-10.4006
ject	-10.4006
rujillo	-10.4006
▁+54-11-	-10.4006
Cuenca	-10.4006
Navarr	-10.4006
aragoza	-10.4006
▁guía	-10.4006
▁Carmona	-10.4006
▁Palomar	-10.4006
▁Informe	-10.4006
▁Black	-10.4006
▁Material	-10.4006
▁06:4	-10.4006
7654	-10.4006
▁libre	-10.4006
▁millón	-10.4006
alaxy	-10.4006
martin	-10.4006
▁personalizada	-10.4006
donaire	-10.4006
▁adelante	-10.4006
▁incluida	-10.4006
▁permite	-10.4006
▁remiti	-10.4006
▁medica	-10.4006
▁Conozc	-10.4006
▁concept	-10.4006
▁revela	-10.4006
▁integr	-10.4006
uitart	-10.4006
▁Envia	-10.4006
▁AWS	-10.4006
▁conduc	-10.4006
▁error	-10.4006
▁mitad	-10.4006
nteligencia	-10.4006
▁Ciber	-10.4006
▁aleatori	-10.4007
▁Santana	-10.4007
▁ejercicio	-10.4007
rapida	-10.4007
▁garantía	-10.4007
▁Moles	-10.4007
vié	-10.4007
▁reportad	-10.4007
▁Cortes	-10.4007
imena	-10.4008
julian	-10.4008
▁HORA	-10.4008
▁4567	-10.4008
▁estilo	-10.4008
▁adqui	-10.4008
▁Rub	-10.4008
▁euro	-10.4008
▁Cué	-10.4008
123456789	-10.4009
cidente	-10.4009
▁Piso	-10.4009
pdf	-10.401
▁Aires	-10.401
▁desuscribirme	-10.401
▁Costo	-10.401
stigo	-10.4011
barrio	-10.4011
▁privados	-10.4012
▁Offic	-10.4012
▁reprogramada	-10.4013
ledesma	-10.4014
▁Ign	-10.4014
▁comienza	-10.4014
higueras	-10.4015
/05	-10.4015
▁regala	-10.4015
Consequ	-10.4016
▁radi	-10.4016
▁Dona	-10.4017
▁mora	-10.4017
▁$8,000	-10.4017
▁Complet	-10.4018
▁detectada	-10.4018
▁esencial	-10.4018
▁aporte	-10.4018
▁esté	-10.4019
bancoseguro	-10.4021
▁Tasa	-10.4021
aristela	-10.4021
▁Amor	-10.4022
aliano	-10.4022
▁sól	-10.4023
flor	-10.4024
▁20/12	-10.4027
estric	-10.4028
wall	-10.4029
▁Retir	-10.4029
▁amor	-10.403
▁realidad	-10.4031
▁Wi	-10.4031
▁Sab	-10.4032
Riera	-10.4035
▁especialista	-10.4038
▁nada	-10.4039
Murcia	-10.404
▁23:4	-10.4041
arciano	-10.4042
bust	-10.4049
ities	-10.4053
▁organiza	-10.4054
▁13:4	-10.4061
▁ciert	-10.4066
olosa	-10.407
AND	-10.4077
▁22:0	-10.4077
▁16:5	-10.4078
▁quien	-10.408
apela	-10.4083
rturo	-10.4084
▁11:5	-10.4084
▁Nat	-10.4111
▁cobranza	-10.4124
anesa	-10.4131
▁15:5	-10.4134
uarez	-10.414
omet	-10.416
rche	-10.4184
ext	-10.4205
▁15:1	-10.4207
arry	-10.4231
▁vuel	-10.425
scar	-10.4267
itud	-10.434
nciales	-10.4344
▁juga	-10.435
▁usa	-10.4353
ertado	-10.4364
eodora	-10.4366
ctas	-10.4408
ontero	-10.4473
/12/2024	-10.4566
Reserva	-10.4737
745	-10.4772
hazte	-10.4773
▁autoridad	-10.4776
laudia	-10.4809
▁Reserv	-10.4873
▁admisi	-10.4914
premio	-10.5018
candidato	-10.5027
ptimiz	-10.5055
▁colabora	-10.506
consultori	-10.5235
NOS	-10.5248
ganador	-10.5324
▁pregunta	-10.5327
▁comentario	-10.5334
ganancias	-10.5355
seleccionado	-10.5358
fraude	-10.5358
transacciones	-10.5359
inmediata	-10.5363
Sevilla	-10.5548
▁equip	-10.5556
▁Financier	-10.5563
onfiable	-10.5578
▁almacen	-10.5585
▁reclama	-10.5597
▁explic	-10.5611
tiene	-10.5617
▁comercial	-10.5622
partamento	-10.5627
▁12:3	-10.5633
▁Genera	-10.5649
▁inclusi	-10.5656
▁comprometedor	-10.566
▁automática	-10.5665
▁exitosa	-10.5666
conocido	-10.5666
▁desuscribir	-10.5667
ropio	-10.5668
ransferí	-10.5669
▁currícul	-10.567
▁PROMO	-10.5671
historia	-10.5672
▁navega	-10.5672
ealice	-10.5672
clinica	-10.5672
carolina	-10.5672
▁preocup	-10.5672
▁abandona	-10.5672
architect	-10.5672
bermudez	-10.5672
recuperaci	-10.5672
alvarez	-10.5672
claim	-10.5672
institucion	-10.5672
▁Llopis	-10.5672
▁reembolso	-10.5672
▁secretaria	-10.5672
-3340	-10.5672
/11/2024	-10.5672
ATENCIÓN	-10.5672
FORMA	-10.5672
MAZON	-10.5672
REVOLUCIONARIO	-10.5672
SUSCRIPCIÓN	-10.5672
TARJETA	-10.5672
ansomware	-10.5672
ashback	-10.5672
rodrigo	-10.5672
▁#456123	-10.5672
▁1558/01	-10.5672
▁Badía	-10.5672
▁Barrial	-10.5672
▁Benavent	-10.5672
▁Bermejo	-10.5672
▁Cabeza	-10.5672
▁Cambio	-10.5672
▁Cancún	-10.5672
▁Captura	-10.5672
▁Cayetan	-10.5672
▁CodeGPT	-10.5672
▁Cuevas	-10.5672
▁Custodi	-10.5672
▁Datadog	-10.5672
▁Discover	-10.5672
▁Extrem	-10.5672
▁Fantasía	-10.5672
▁Fortunat	-10.5672
▁Franch	-10.5672
▁Fraudes	-10.5672
▁Frutos	-10.5672
▁Gisbert	-10.5672
▁González	-10.5672
▁Huguet	-10.5672
▁Iglesia	-10.5672
▁Incluido	-10.5672
▁Medium	-10.5672
▁Octavi	-10.5672
▁Orozco	-10.5672
▁Platinum	-10.5672
▁Privada	-10.5672
▁Quiroga	-10.5672
▁Ripoll	-10.5672
▁Rodríguez	-10.5672
▁Spring	-10.5672
▁SurveyMonkey	-10.5672
▁Testimonios	-10.5672
▁Vigilante	-10.5672
▁abrazo	-10.5672
▁académica	-10.5672
▁académico	-10.5672
▁alguien	-10.5672
▁application	-10.5672
▁arruin	-10.5672
▁ascenso	-10.5672
▁aumentar	-10.5672
▁bebidas	-10.5672
▁búsqueda	-10.5672
▁cancelado	-10.5672
▁características	-10.5672
▁clasifica	-10.5672
▁comprensión	-10.5672
▁conferencias	-10.5672
▁crecer	-10.5672
▁eliminado	-10.5672
▁escuchar	-10.5672
▁estudiar	-10.5672
▁feriado	-10.5672
▁implica	-10.5672
▁irrefutables	-10.5672
▁necesario	-10.5672
▁original	-10.5672
▁registrada	-10.5672
▁relevante	-10.5672
▁renovada	-10.5672
▁restringid	-10.5672
▁semestre	-10.5672
▁troyano	-10.5672
DESUSCRIBIR	-10.5672
rovincia	-10.5672
struya	-10.5672
twitter	-10.5672
▁Arroyo	-10.5672
▁Bilbao	-10.5672
▁CONTRATA	-10.5672
▁Figuero	-10.5672
▁Nuevo	-10.5672
▁Pinedo	-10.5672
▁Stock	-10.5672
▁enviada	-10.5672
▁ilimitad	-10.5672
▁relacionado	-10.5672
▁ticket	-10.5672
iglesia	-10.5672
▁Adadia	-10.5672
▁Escolano	-10.5672
▁Public	-10.5672
▁comuní	-10.5672
▁revoluci	-10.5672
establezca	-10.5672
▁Rescate	-10.5672
ELECT	-10.5672
proximo	-10.5672
▁Blazquez	-10.5672
▁postre	-10.5672
▁transcrip	-10.5672
ristán	-10.5672
▁rechaza	-10.5672
omnis	-10.5672
▁paciente	-10.5672
▁robado	-10.5672
cadenas	-10.5672
▁Carbó	-10.5672
▁Entrena	-10.5672
▁Paciente	-10.5672
▁conserva	-10.5672
▁publicaciones	-10.5672
morales	-10.5673
▁Aguil	-10.5673
▁expedi	-10.5673
▁Catal	-10.5673
▁culpa	-10.5673
empleado	-10.5673
interna	-10.5673
phone	-10.5673
▁Lleva	-10.5673
pyware	-10.5673
Piquer	-10.5673
▁infección	-10.5673
liance	-10.5673
saenz	-10.5673
uerrero	-10.5673
▁Menú	-10.5673
oculta	-10.5673
allego	-10.5673
lquiler	-10.5673
▁Cerdá	-10.5673
▁Molin	-10.5673
▁compañero	-10.5673
▁lectura	-10.5673
▁Belda	-10.5673
▁retorno	-10.5673
▁interior	-10.5673
▁Hosk	-10.5673
fíci	-10.5673
onzalez	-10.5673
vidal	-10.5673
Nueva	-10.5673
▁creer	-10.5673
▁agenda	-10.5673
atencion	-10.5673
Ávila	-10.5673
▁Vallés	-10.5673
▁espía	-10.5673
▁Fabi	-10.5673
▁Opera	-10.5673
▁Regula	-10.5673
▁Info	-10.5673
▁Gaya	-10.5673
▁Benign	-10.5673
▁manual	-10.5673
▁Open	-10.5673
▁competen	-10.5673
nalizado	-10.5673
▁Vega	-10.5673
trillo	-10.5674
AbC	-10.5674
Carrillo	-10.5674
▁Portero	-10.5674
rueda	-10.5674
contabilidad	-10.5674
trading	-10.5674
▁piel	-10.5674
▁9:00	-10.5674
▁transfier	-10.5675
▁Lucian	-10.5675
▁Salas	-10.5675
▁Cabrera	-10.5675
spañol	-10.5675
BILE	-10.5675
drive	-10.5676
▁logra	-10.5676
▁boletín	-10.5676
▁Perea	-10.5676
hico	-10.5676
▁Eligi	-10.5678
▁Much	-10.5678
▁periodo	-10.5678
▁bienestar	-10.5678
▁beca	-10.5679
▁área	-10.5679
reddit	-10.568
utenticación	-10.568
miami	-10.568
▁Zai	-10.5681
íder	-10.5681
▁Bou	-10.5681
ograma	-10.5682
▁Arco	-10.5683
ellido	-10.5684
▁$299	-10.5688
▁Optio	-10.5688
Calle	-10.5688
▁masiv	-10.5689
venida	-10.569
▁median	-10.5691
▁Clase	-10.5692
▁09:5	-10.5695
añe	-10.5696
bayo	-10.5696
olution	-10.5697
lbano	-10.5704
hera	-10.5705
SAC	-10.571
Casals	-10.571
Buen	-10.5715
▁SOL	-10.5715
▁Adeli	-10.5721
obledo	-10.5723
▁16:1	-10.573
▁05:0	-10.5735
▁Palac	-10.5735
▁añad	-10.5738
lcalde	-10.574
▁15:4	-10.5743
sistent	-10.5746
media	-10.575
afet	-10.5752
ACC	-10.5776
carlos	-10.5778
111	-10.5782
▁afecta	-10.5785
▁23:0	-10.5792
▁incorpora	-10.5795
▁23:5	-10.5799
▁marian	-10.58
▁02:1	-10.5842
aquel	-10.5869
▁disc	-10.5885
▁segui	-10.5912
▁Florenci	-10.5921
orcel	-10.5942
▁Prudenci	-10.595
▁16:3	-10.5975
▁amb	-10.5984
ENCI	-10.5988
arketing	-10.6065
703	-10.6067
▁Bienvenid	-10.6117
-90	-10.619
LLE	-10.6205
ntivirus	-10.6233
ULAR	-10.6274
▁13:3	-10.6331
447	-10.6368
escribano	-10.6391
9-0	-10.6454
bueno	-10.657
▁Asesor	-10.6644
▁casi	-10.6684
ñ	-10.6727
▁elegid	-10.6759
cubrir	-10.6864
elena	-10.6934
▁pued	-10.6953
670	-10.7078
uelva	-10.7116
asinos	-10.7146
lujos	-10.722
cargar	-10.7252
▁Martin	-10.7272
ervicios	-10.7285
Participa	-10.7353
Ú	-10.7356
Reddit	-10.7358
cambio	-10.7358
descuentos	-10.7359
oficina	-10.736
usuario	-10.7364
▁preven	-10.7531
▁benefici	-10.7549
▁Desarroll	-10.7554
▁sujet	-10.7566
▁selecciona	-10.7594
rganización	-10.7604
▁Imp	-10.7611
urriculum	-10.7627
▁disposi	-10.7646
ología	-10.7658
igueras	-10.766
general	-10.7661
▁desarrollad	-10.7663
ertificado	-10.7665
▁comenta	-10.7668
▁puntual	-10.7668
grafía	-10.7671
milagro	-10.7672
Guadal	-10.7672
antonio	-10.7672
anzanares	-10.7672
crecimiento	-10.7672
galicia	-10.7672
influencer	-10.7672
ivadavia	-10.7672
palomino	-10.7672
▁Ricart	-10.7672
▁individu	-10.7672
confianza	-10.7672
coordenadas	-10.7672
hackeada	-10.7672
mbrosio	-10.7672
mercadolibre	-10.7672
▁TikTok	-10.7672
▁riqueza	-10.7672
OFUSCA	-10.7672
ONLINE	-10.7672
Sanmartín	-10.7672
bartolome	-10.7672
fabra	-10.7672
ignissimos	-10.7672
lfonso	-10.7672
métric	-10.7672
uenaventura	-10.7672
villanueva	-10.7672
▁$750,000	-10.7672
▁ARGENTINA	-10.7672
▁Balaguer	-10.7672
▁Bancario	-10.7672
▁Bermúdez	-10.7672
▁CONSUMO	-10.7672
▁CRÉDITO	-10.7672
▁Carranza	-10.7672
▁Cibernétic	-10.7672
▁EXCLUSIVA	-10.7672
▁FORMATIV	-10.7672
▁Investiga	-10.7672
▁Judicial	-10.7672
▁Liquidaci	-10.7672
▁Llobet	-10.7672
▁Observador	-10.7672
▁Prompt	-10.7672
▁Pública	-10.7672
▁SUPER	-10.7672
▁Servidor	-10.7672
▁Vélez	-10.7672
▁Wallet	-10.7672
▁Zoom	-10.7672
▁acumulable	-10.7672
▁almuerzo	-10.7672
▁anuncio	-10.7672
▁aventura	-10.7672
▁capacidad	-10.7672
▁categoría	-10.7672
▁codificación	-10.7672
▁cédula	-10.7672
▁emitido	-10.7672
▁exprés	-10.7672
▁extranjera	-10.7672
▁flexibilidad	-10.7672
▁flexible	-10.7672
▁graphic	-10.7672
▁instantáneo	-10.7672
▁laboratorio	-10.7672
▁malicioso	-10.7672
▁modificaciones	-10.7672
▁molestias	-10.7672
▁objetivo	-10.7672
▁observa	-10.7672
▁pedagógic	-10.7672
▁performance	-10.7672
▁presupuesto	-10.7672
▁prioridad	-10.7672
▁puntaje	-10.7672
▁reprehenderit	-10.7672
▁resuelt	-10.7672
▁satisfacción	-10.7672
▁servirte	-10.7672
▁suspendido	-10.7672
▁temporada	-10.7672
▁unsubscribe	-10.7672
▁vencimiento	-10.7672
▁vincula	-10.7672
▁visualiza	-10.7672
▁ÚNICA	-10.7672
CASINO	-10.7672
REACT	-10.7672
instagram	-10.7672
termine	-10.7672
▁España	-10.7672
▁Fictici	-10.7672
▁Galván	-10.7672
▁Renuev	-10.7672
▁Uriarte	-10.7672
▁Volupta	-10.7672
▁compromiso	-10.7672
▁devolve	-10.7672
▁entender	-10.7672
▁respald	-10.7672
▁telefon	-10.7672
▁visite	-10.7672
SEGUR	-10.7672
ngelita	-10.7672
▁Alfaro	-10.7672
▁Ayuda	-10.7672
▁ESPECIAL	-10.7672
▁Nogueira	-10.7672
▁analyz	-10.7672
▁colección	-10.7672
▁diarias	-10.7672
▁educación	-10.7672
▁positivo	-10.7672
▁subsidi	-10.7672
ransporte	-10.7672
vilanova	-10.7672
▁Aznar	-10.7672
▁Ferrera	-10.7672
▁Suárez	-10.7672
▁coche	-10.7672
-9876	-10.7672
CONTACT	-10.7672
iquelme	-10.7672
unctional	-10.7672
▁0800-333	-10.7672
▁Lozano	-10.7672
▁Pereira	-10.7672
▁elegí	-10.7672
▁extrema	-10.7672
▁llegue	-10.7672
▁Técnica	-10.7672
▁encantar	-10.7672
▁olvid	-10.7672
▁Pinilla	-10.7672
▁conecta	-10.7672
▁músculo	-10.7672
▁señalad	-10.7672
mpresionante	-10.7672
WIF	-10.7673
▁Calleja	-10.7673
▁Palomo	-10.7673
obierno	-10.7673
▁Donaire	-10.7673
▁Gomis	-10.7673
▁Online	-10.7673
▁Sarmiento	-10.7673
▁donación	-10.7673
ontesinos	-10.7673
▁exitoso	-10.7673
▁Médic	-10.7673
ólogo	-10.7673
▁retenid	-10.7673
▁Boot	-10.7673
▁Instala	-10.7673
▁Romero	-10.7673
▁docente	-10.7673
▁segunda	-10.7673
winner	-10.7673
ncipal	-10.7673
▁Envía	-10.7673
▁multi	-10.7673
▁ícono	-10.7673
Cabrer	-10.7673
tupropi	-10.7673
▁Arregui	-10.7673
▁milagrosa	-10.7673
amacho	-10.7673
▁milagroso	-10.7673
▁amplia	-10.7673
▁venir	-10.7673
ccionista	-10.7673
ocorro	-10.7673
▁estimad	-10.7673
▁link	-10.7673
▁otorgad	-10.7673
▁Bank	-10.7673
▁Reduce	-10.7673
▁Vergara	-10.7673
riera	-10.7673
operatori	-10.7673
▁Barber	-10.7673
▁mágica	-10.7673
▁BONIFICA	-10.7673
▁+54	-10.7673
Ferrán	-10.7673
▁atento	-10.7673
▁directo	-10.7673
▁Plaza	-10.7673
bregas	-10.7673
▁enfermedad	-10.7673
▁Barba	-10.7673
▁conmigo	-10.7673
▁avales	-10.7673
▁califica	-10.7673
▁publicados	-10.7673
ónimo	-10.7673
juste	-10.7673
▁spam	-10.7673
▁mirada	-10.7673
alcedo	-10.7673
scuela	-10.7673
pedro	-10.7673
ATC	-10.7674
▁Diaz	-10.7674
▁banda	-10.7674
▁Camil	-10.7674
▁calidad	-10.7674
▁socio	-10.7674
einaldo	-10.7674
ibiana	-10.7674
lauco	-10.7674
▁ciencia	-10.7674
▁00:3	-10.7674
▁selecto	-10.7674
▁ABC	-10.7674
▁suscribi	-10.7674
▁vecino	-10.7674
▁Sureda	-10.7674
▁human	-10.7674
▁Rivas	-10.7675
dmisiones	-10.7675
▁CAP	-10.7675
▁Garc	-10.7675
santos	-10.7676
poya	-10.7676
▁Prat	-10.7676
▁plato	-10.7676
Recupera	-10.7676
▁acaba	-10.7676
eruel	-10.7677
▁Punto	-10.7677
▁Valid	-10.7677
▁demores	-10.7677
QUI	-10.7677
▁favorito	-10.7677
elasco	-10.7679
diego	-10.7679
ourdes	-10.768
zahar	-10.768
626	-10.768
Albero	-10.768
jorda	-10.768
from	-10.7681
▁Amig	-10.7682
Manso	-10.7682
▁discret	-10.7683
▁flam	-10.7683
lerma	-10.7683
▁monitoread	-10.7684
▁escritor	-10.7685
icarda	-10.7686
prat	-10.7687
▁+3466	-10.7689
pinto	-10.7691
lvaro	-10.7691
mercial	-10.7692
▁Gast	-10.7692
inclusive	-10.7695
Valentín	-10.7695
▁gast	-10.7695
osenda	-10.7699
▁cuesti	-10.7703
armina	-10.7705
exito	-10.7708
osimo	-10.7708
aricela	-10.7713
ensaje	-10.7717
sensi	-10.7723
▁Talle	-10.7725
548	-10.7726
colom	-10.7733
ierta	-10.7735
ilencioso	-10.774
rieto	-10.7742
exact	-10.7751
▁Bert	-10.7751
▁Acumul	-10.7816
stefan	-10.7867
avanzada	-10.7903
ampoy	-10.7968
▁LEE	-10.7971
carri	-10.7982
▁dispon	-10.8028
749	-10.8103
▁recarg	-10.8124
740	-10.8133
500,000	-10.833
▁trimestr	-10.836
Unidad	-10.8479
▁optimi	-10.8481
posición	-10.8519
fectiv	-10.8561
profesores	-10.8654
▁Claud	-10.8838
ooperación	-10.9105
▁20:3	-10.9121
antenimiento	-10.9147
▁15/12/202	-10.9214
aleman	-10.9238
▁realiz	-10.9273
RIDA	-10.9303
póli	-10.9375
Sanz	-10.963
▁detalle	-10.9829
▁minuto	-10.9832
Central	-10.9855
URGENTE	-10.9857
internacional	-10.9857
millonario	-10.9857
precio	-10.9861
Confirma	-10.9861
acceso	-10.9864
▁requier	-10.9909
▁protege	-11.0017
utomático	-11.0068
iscales	-11.0072
minguez	-11.008
▁Silenci	-11.0088
cedida	-11.0143
▁ofrece	-11.0147
▁Financia	-11.0147
privado	-11.0162
apacitación	-11.0165
ropiedad	-11.0166
Agua	-11.0168
ultiplica	-11.0168
ovimientos	-11.0169
eléfono	-11.0169
▁Bonif	-11.0169
▁Transacci	-11.017
▁enferm	-11.0172
balaguer	-11.0172
▁BIEN	-11.0172
regui	-11.0172
alejandra	-11.0172
francisco	-11.0172
norton	-11.0172
PENDI	-11.0172
benavent	-11.0172
ULTRA	-11.0172
WINNER	-11.0172
antunez	-11.0172
fonseca	-11.0172
ibanez	-11.0172
iduciario	-11.0172
legram	-11.0172
ornejo	-11.0172
ropbox	-11.0172
universitario	-11.0172
▁ASSISTAN	-11.0172
▁Quint	-11.0172
▁fitness	-11.0172
▁gradua	-11.0172
armengol	-11.0172
asociacion	-11.0172
calderon	-11.0172
contreras	-11.0172
galvez	-11.0172
ramburu	-11.0172
zeneth	-11.0172
▁AHORRO	-11.0172
▁vergonzos	-11.0172
-6543	-11.0172
ACTÚ	-11.0172
CITACIONES	-11.0172
Exclusiv	-11.0172
GMAIL	-11.0172
PERSONAL	-11.0172
PRUEBA	-11.0172
Vázquez	-11.0172
anrique	-11.0172
apdevila	-11.0172
group	-11.0172
guirre	-11.0172
millonarias	-11.0172
office	-11.0172
ológica	-11.0172
ológico	-11.0172
rrutia	-11.0172
santamaria	-11.0172
siniestros	-11.0172
tlético	-11.0172
treet	-11.0172
tribunal	-11.0172
utlook	-11.0172
valentin	-11.0172
▁#789123	-11.0172
▁$250,000	-11.0172
▁+34741	-11.0172
▁0,00%	-11.0172
▁4567-8901	-11.0172
▁555-4567	-11.0172
▁Almagro	-11.0172
▁Antecedente	-11.0172
▁Barceló	-11.0172
▁Basílica	-11.0172
▁Belmonte	-11.0172
▁Belén	-11.0172
▁Berrocal	-11.0172
▁Blázquez	-11.0172
▁CLIENTE	-11.0172
▁Calixt	-11.0172
▁Contreras	-11.0172
▁Corbacho	-11.0172
▁DESCUENTO	-11.0172
▁DOCENTE	-11.0172
▁ELIMINAD	-11.0172
▁EUROP	-11.0172
▁Echevarría	-11.0172
▁Engineer	-11.0172
▁Espinosa	-11.0172
▁FAMILIAR	-11.0172
▁Facled	-11.0172
▁Franco	-11.0172
▁Gonzalo	-11.0172
▁Herrero	-11.0172
▁Iborra	-11.0172
▁Inscrip	-11.0172
▁Manzano	-11.0172
▁Marqués	-11.0172
▁Meléndez	-11.0172
▁Morcillo	-11.0172
▁NUESTR	-11.0172
▁PROPUESTA	-11.0172
▁Palermo	-11.0172
▁Postula	-11.0172
▁Ramirez	-11.0172
▁Salvador	-11.0172
▁Sandoval	-11.0172
▁Sáenz	-11.0172
▁Taboada	-11.0172
▁Torrens	-11.0172
▁Tributari	-11.0172
▁Voluntari	-11.0172
▁Whatsapp	-11.0172
▁abdominal	-11.0172
▁accusamus	-11.0172
▁arancel	-11.0172
▁auditoría	-11.0172
▁caducar	-11.0172
▁cancelación	-11.0172
▁creatividad	-11.0172
▁criminal	-11.0172
▁crítico	-11.0172
▁desempeño	-11.0172
▁distinctio	-11.0172
▁encuentre	-11.0172
▁escríbenos	-11.0172
▁extranjero	-11.0172
▁exámenes	-11.0172
▁franquicia	-11.0172
▁físico	-11.0172
▁implementa	-11.0172
▁involucra	-11.0172
▁jardín	-11.0172
▁obsequio	-11.0172
▁ofuscación	-11.0172
▁pizza	-11.0172
▁proporcione	-11.0172
▁quibusdam	-11.0172
▁recepción	-11.0172
▁refleja	-11.0172
▁remitente	-11.0172
▁repudiandae	-11.0172
▁récord	-11.0172
▁stock	-11.0172
▁sugerencias	-11.0172
▁suscripcion	-11.0172
▁tempore	-11.0172
▁truco	-11.0172
▁vulnerab	-11.0172
▁Águila	-11.0172
abanillas	-11.0172
finanzas	-11.0172
pineiro	-11.0172
▁+1-305-	-11.0172
▁Candela	-11.0172
▁Escamilla	-11.0172
▁INTERÉS	-11.0172
▁Synergi	-11.0172
▁algoritmo	-11.0172
▁asociada	-11.0172
▁diseñad	-11.0172
▁ipsam	-11.0172
▁recuerd	-11.0172
▁remunerad	-11.0172
▁tranquil	-11.0172
Windows	-11.0172
alenzuela	-11.0172
testimonios	-11.0172
▁+34748	-11.0172
▁Alberdi	-11.0172
▁Cerezo	-11.0172
▁Eusebi	-11.0172
▁Plazo	-11.0172
▁XYZ	-11.0172
▁cheque	-11.0172
▁cortesía	-11.0172
▁dirigi	-11.0172
▁emocionad	-11.0172
▁grasa	-11.0172
▁guiar	-11.0172
▁revise	-11.0172
▁sentido	-11.0172
▁Antón	-11.0172
bermejo	-11.0172
gilabert	-11.0172
▁Shop	-11.0172
▁Tomé	-11.0172
▁expire	-11.0172
▁memoria	-11.0172
▁vacante	-11.0172
encripta	-11.0172
ennifer	-11.0172
llobet	-11.0172
regularizar	-11.0172
tamarit	-11.0172
▁Forms	-11.0172
▁nube	-11.0172
▁profund	-11.0172
▁workshop	-11.0172
▁Tapia	-11.0172
55-1234	-11.0173
Navidad	-11.0173
▁$25,000	-11.0173
▁Europa	-11.0173
residencia	-11.0173
▁Hernando	-11.0173
▁animal	-11.0173
▁significativas	-11.0173
▁Medina	-11.0173
argallo	-11.0173
hernando	-11.0173
ifuentes	-11.0173
zapata	-11.0173
▁Total	-11.0173
▁magna	-11.0173
codigo	-11.0173
hsbc	-11.0173
ujadas	-11.0173
▁grupo	-11.0173
▁positiva	-11.0173
Fundament	-11.0173
▁Rusia	-11.0173
▁París	-11.0173
▁deliciosa	-11.0173
-4521	-11.0173
priego	-11.0173
▁$297	-11.0173
▁Guerra	-11.0173
aduana	-11.0173
▁charla	-11.0173
azorla	-11.0173
▁Cañete	-11.0173
▁inversionista	-11.0173
nunez	-11.0173
ercedes	-11.0173
Toledo	-11.0173
▁cancha	-11.0173
▁queridos	-11.0173
▁06:0	-11.0173
Tejera	-11.0173
Lluch	-11.0173
canales	-11.0173
_20241219_1	-11.0173
edraza	-11.0173
▁apunta	-11.0173
ackup	-11.0173
▁expan	-11.0173
▁Ruano	-11.0173
▁Valor	-11.0173
▁Pepit	-11.0173
▁mamá	-11.0173
▁cotiza	-11.0173
erdugo	-11.0173
▁merece	-11.0173
nzamiento	-11.0173
sparza	-11.0173
Guardiola	-11.0173
▁Modest	-11.0173
▁destinad	-11.0173
equeño	-11.0173
▁receta	-11.0173
strella	-11.0173
▁Blanc	-11.0173
ight	-11.0173
premiado	-11.0173
arrasco	-11.0173
amuel	-11.0173
casanova	-11.0173
arballo	-11.0173
▁potenci	-11.0175
Blasco	-11.0175
4321	-11.0175
ejarano	-11.0175
santan	-11.0175
micros	-11.0175
facebook	-11.0176
▁Rufin	-11.0177
paloma	-11.0178
ntermediate	-11.018
rtistas	-11.0182
▁00:1	-11.0182
▁alumno	-11.0183
notaria	-11.0187
corrido	-11.0187
▁01800	-11.0187
▁Calist	-11.0192
polizas	-11.0198
icke	-11.0202
dineroexpres	-11.0203
veniente	-11.0228
speranza	-11.0238
▁Clement	-11.0245
onreal	-11.0248
aturnina	-11.0279
ENDE	-11.0322
plicaciones	-11.0338
ENVI	-11.0367
evillano	-11.0371
▁Sobr	-11.0406
scripciones	-11.0625
▁Inici	-11.068
▁Recuerd	-11.0684
documentos	-11.0913
olaboración	-11.1213
uñ	-11.1219
solicita	-11.1354
puert	-11.1358
▁tabl	-11.1462
▁present	-11.1919
▁profesor	-11.1961
▁exposici	-11.2152
unicipalidad	-11.2373
trimestre	-11.2384
▁Market	-11.2478
cómoda	-11.2514
▁ignor	-11.2516
client	-11.2604
Juliá	-11.2882
▁Document	-11.2921
rudencia	-11.2927
RGEN	-11.296
▁avanza	-11.2995
Aprovech	-11.3088
▁imperdible	-11.3159
erfecto	-11.3181
fortuna	-11.3188
Descarg	-11.3189
restaurar	-11.3192
Compra	-11.3195
oportunidad	-11.3198
<	-11.3199
+	-11.8199
#	-12.8215
Ó	-12.8215
[	-12.8216
¿	-12.8217
|	-12.8218
¡	-12.8218
